<unk>	0
<s>	0
</s>	0
、	-3.14031
。	-3.44721
の	-3.72544
▁	-3.95892
は	-4.09966
が	-4.40982
・	-4.49309
)	-4.59438
を	-4.60531
に	-4.6349
年	-4.68062
(	-4.68578
で	-4.91095
と	-5.02144
="	-5.12853
.	-5.28738
」	-5.35141
「	-5.40478
月	-5.41182
doc	-5.50611
2	-5.64367
1	-5.67229
"	-5.76723
した	-5.77847
や	-5.81495
である	-5.81524
から	-5.8245
し	-5.85282
3	-5.85359
も	-5.93507
/	-5.98444
日	-6.00504
する	-6.06272
4	-6.10167
として	-6.12698
>	-6.14824
?	-6.16409
▁<	-6.1863
ja	-6.19237
org	-6.19514
wiki	-6.19645
://	-6.19737
https	-6.19919
▁id	-6.19961
wikipedia	-6.20001
▁title	-6.20005
curid	-6.20013
▁url	-6.20013
▁</	-6.20048
た	-6.25391
では	-6.25529
』	-6.28805
">	-6.3037
『	-6.32519
5	-6.38128
6	-6.48132
7	-6.57013
には	-6.57251
8	-6.63281
10	-6.66576
年に	-6.6879
された	-6.68825
る	-6.69209
この	-6.69918
9	-6.70555
ス	-6.70853
な	-6.74179
また	-6.74448
など	-6.76556
という	-6.76929
大	-6.7889
その	-6.79523
している	-6.83289
して	-6.85291
=	-6.86041
第	-6.88177
人	-6.88711
て	-6.90297
12	-6.93425
▁-	-6.94496
-	-6.95235
▁(	-6.97213
ている	-6.99934
11	-7.00755
市	-7.02315
日に	-7.0639
され	-7.13091
となった	-7.15625
ア	-7.16396
一	-7.18046
ク	-7.18216
によって	-7.18369
ド	-7.19089
り	-7.19925
ト	-7.19933
中	-7.20028
による	-7.2057
山	-7.21939
により	-7.23074
:	-7.23705
であった	-7.24887
であり	-7.2544
町	-7.26925
本	-7.28191
日本	-7.28631
17	-7.29191
,	-7.30414
ラ	-7.30763
川	-7.31598
される	-7.32796
い	-7.33025
か	-7.33305
ズ	-7.36202
20	-7.37034
カ	-7.37237
回	-7.38506
16	-7.39022
15	-7.39181
ナ	-7.41943
18	-7.42017
がある	-7.42407
リ	-7.42495
国	-7.43039
上	-7.4337
となる	-7.43978
へ	-7.44061
長	-7.44581
より	-7.45448
名	-7.45553
されている	-7.45762
マ	-7.466
同	-7.46932
線	-7.4772
後	-7.48151
、「	-7.48227
駅	-7.48714
部	-7.49325
田	-7.49423
子	-7.50235
への	-7.51244
者	-7.51375
タ	-7.52022
ル	-7.52103
新	-7.5296
30	-7.53922
まで	-7.55645
ため	-7.55848
s	-7.55973
道	-7.57531
く	-7.57562
法	-7.5864
島	-7.5968
昭和	-7.59763
コ	-7.60093
A	-7.60284
家	-7.60446
的な	-7.60464
14	-7.60824
性	-7.61537
水	-7.61707
き	-7.61787
戦	-7.63112
S	-7.63308
していた	-7.63869
ら	-7.64721
み	-7.64831
つ	-7.65233
ていた	-7.65326
ム	-7.65801
13	-7.65877
った	-7.66257
だった	-7.66452
シ	-7.67113
m	-7.67461
C	-7.68024
号	-7.68288
分	-7.68815
東	-7.69305
しかし	-7.69403
月に	-7.69657
などの	-7.69725
三	-7.6977
ノ	-7.70022
村	-7.70241
高	-7.70329
西	-7.70576
レ	-7.70621
化	-7.70949
ロ	-7.70994
フ	-7.71102
において	-7.71619
元	-7.71911
生	-7.72286
郡	-7.72571
B	-7.72631
内	-7.72653
にも	-7.72842
バ	-7.72884
サ	-7.73677
イ	-7.75063
的	-7.75107
州	-7.75199
デ	-7.7526
下	-7.75282
大学	-7.75374
前	-7.75395
でも	-7.76391
南	-7.76392
25	-7.76461
ダ	-7.79
原	-7.79078
24	-7.80254
地	-7.80586
オ	-7.80974
数	-7.81541
および	-7.8257
小	-7.82843
時	-7.8376
ミ	-7.83789
エ	-7.85747
北	-7.85851
位	-7.85884
型	-7.86038
にある	-7.86607
となり	-7.8674
その後	-7.87678
手	-7.87808
金	-7.88476
会	-7.89273
F	-7.89651
お	-7.89991
M	-7.90383
21	-7.90721
ニ	-7.9097
19	-7.91184
マン	-7.91576
』(	-7.91837
城	-7.92255
23	-7.92408
22	-7.93233
年の	-7.93826
チ	-7.94886
映画	-7.9499
年には	-7.95272
所	-7.95442
リー	-7.95471
キ	-7.95505
ブ	-7.95707
D	-7.9643
ガ	-7.96446
26	-7.96918
神	-7.97124
形	-7.97441
す	-7.97726
27	-7.97742
野	-7.98165
約	-7.98337
28	-7.98482
29	-7.98808
王	-7.98897
点	-7.99015
P	-7.99112
との	-7.9944
軍	-8.00104
平成	-8.00235
平	-8.00531
東京	-8.00934
文	-8.01209
における	-8.0124
等	-8.01336
日本の	-8.01869
行	-8.02648
用	-8.02682
物	-8.02785
語	-8.03184
ジ	-8.03551
T	-8.03676
海	-8.04472
車	-8.04542
う	-8.04642
放送	-8.04656
石	-8.04725
二	-8.04751
さ	-8.04834
式	-8.053
同年	-8.05314
正	-8.05406
ティ	-8.05762
後に	-8.06153
ツ	-8.06371
区	-8.06397
全	-8.0649
ディ	-8.06649
パ	-8.06834
見	-8.06875
とは	-8.06928
公	-8.07108
代	-8.07317
G	-8.07368
光	-8.07458
ザ	-8.07723
世界	-8.07743
となっている	-8.08359
系	-8.08495
▁『	-8.087
ン	-8.08923
ウ	-8.08952
立	-8.09212
って	-8.09721
ており	-8.09981
モ	-8.10185
勝	-8.10291
こと	-8.10315
テ	-8.10407
社	-8.10585
さらに	-8.1101
グ	-8.11095
K	-8.11176
年から	-8.11525
学	-8.12832
ない	-8.12915
ネ	-8.13221
体	-8.13241
木	-8.13292
W	-8.13585
プ	-8.13586
力	-8.13665
場	-8.13728
面	-8.14443
事	-8.14646
ビ	-8.15625
寺	-8.15807
作	-8.16154
R	-8.16392
外	-8.16757
イン	-8.16898
いた	-8.1692
L	-8.17392
ハ	-8.17826
メ	-8.18024
作品	-8.18661
にて	-8.19011
ゲーム	-8.19133
アン	-8.19143
こ	-8.19792
口	-8.19812
機	-8.19916
地域	-8.20124
旧	-8.20337
鉄道	-8.21042
H	-8.21138
和	-8.2154
これは	-8.21661
重	-8.21847
書	-8.21989
無	-8.23266
美	-8.2352
だ	-8.23728
バー	-8.23814
31	-8.24002
人の	-8.24266
天	-8.24488
があり	-8.24749
N	-8.24764
ま	-8.24786
度	-8.2491
について	-8.24961
出	-8.25074
活動	-8.25209
とする	-8.25334
なお	-8.25563
間	-8.25713
J	-8.25789
話	-8.26293
明	-8.26511
E	-8.26617
目	-8.26932
世	-8.27243
馬	-8.27255
明治	-8.27278
40	-8.27443
」(	-8.2791
県	-8.28097
カー	-8.28108
現	-8.28438
不	-8.29291
各	-8.29498
時間	-8.29836
ラー	-8.29841
シリーズ	-8.30313
シュ	-8.30328
アメリカ	-8.3072
セ	-8.30854
になった	-8.3126
万	-8.31322
ター	-8.3136
とも	-8.31389
流	-8.32085
多くの	-8.3245
発	-8.32612
局	-8.32619
チーム	-8.328
着	-8.33135
両	-8.33442
V	-8.33661
での	-8.33791
谷	-8.33925
できる	-8.34342
義	-8.34452
頭	-8.35211
曲	-8.3571
的に	-8.36203
それ	-8.36278
ヤ	-8.36461
宮	-8.36548
船	-8.36696
番組	-8.37348
ゴ	-8.377
バス	-8.37812
プロ	-8.3795
50	-8.37987
ボ	-8.37992
通	-8.38035
版	-8.3805
ロー	-8.38075
現在の	-8.38232
台	-8.38895
風	-8.38895
特に	-8.38941
屋	-8.39045
安	-8.39237
初	-8.39842
つの	-8.3988
ある	-8.40119
学校	-8.40146
音楽	-8.40354
気	-8.40434
ケ	-8.40493
になる	-8.40618
種	-8.41299
橋	-8.41563
直	-8.41634
問題	-8.41767
白	-8.4183
スト	-8.41924
及び	-8.42013
め	-8.42142
コン	-8.42204
期	-8.42295
教育	-8.42383
を持つ	-8.42548
そして	-8.4305
国際	-8.4316
音	-8.43616
」「	-8.4366
科	-8.43719
サン	-8.4388
当時	-8.44093
アル	-8.44218
100	-8.44399
じ	-8.44489
すると	-8.4461
に対して	-8.44674
トン	-8.45196
もの	-8.45332
のみ	-8.45534
井	-8.45576
t	-8.46101
ラン	-8.46329
y	-8.46426
次	-8.46436
制	-8.46542
ー	-8.46753
▁"	-8.47028
賞	-8.47064
計画	-8.47158
心	-8.47637
官	-8.47895
とともに	-8.48102
信	-8.48166
わ	-8.48324
開発	-8.4837
成	-8.486
e	-8.48718
入	-8.48935
事業	-8.49009
門	-8.49053
U	-8.49075
権	-8.49154
方	-8.49247
ヒ	-8.49701
フランス	-8.49804
中国	-8.49878
▁S	-8.50197
!	-8.50353
I	-8.50718
研究	-8.50809
色	-8.50887
多	-8.50904
真	-8.50954
級	-8.50973
氏	-8.51151
日の	-8.51413
花	-8.51424
他の	-8.51754
いる	-8.521
マー	-8.53097
、『	-8.53196
O	-8.5324
ワ	-8.53272
)">	-8.53276
0	-8.53335
しており	-8.53337
ドイツ	-8.53339
アルバム	-8.53404
番	-8.53681
リーグ	-8.53774
られた	-8.53782
からの	-8.5393
院	-8.53964
知	-8.54244
シー	-8.54252
室	-8.54491
文化	-8.54573
都市	-8.5466
主	-8.54787
されていた	-8.55105
む	-8.55133
X	-8.55782
政	-8.55895
▁また	-8.55924
ソ	-8.56029
については	-8.56038
派	-8.56266
役	-8.56487
と呼ばれる	-8.5658
中央	-8.5663
男	-8.567
だが	-8.5672
と共に	-8.56997
ず	-8.57009
定	-8.57156
試合	-8.57547
え	-8.57687
ポ	-8.58014
代表	-8.58084
ち	-8.58142
監督	-8.58269
論	-8.58382
兵	-8.58426
i	-8.58662
歌	-8.5902
星	-8.59049
グループ	-8.59307
を行う	-8.59457
システム	-8.59593
女	-8.60205
っている	-8.60287
大会	-8.60592
ダー	-8.60623
選手	-8.60835
年間	-8.61179
地区	-8.61393
Y	-8.61479
関係	-8.61643
に対する	-8.62094
ギ	-8.62458
リン	-8.62802
地方	-8.63005
al	-8.6304
実	-8.63257
江	-8.63391
吉	-8.63507
事件	-8.63612
組	-8.63639
別	-8.63673
省	-8.63729
n	-8.63739
あ	-8.63934
イギリス	-8.6401
テレビ	-8.64032
モデル	-8.64085
古	-8.64231
合	-8.64929
有	-8.65072
ニー	-8.65231
ペ	-8.65398
朝	-8.65505
シーズン	-8.6556
60	-8.65877
ことを	-8.65979
ッ	-8.6608
ベル	-8.66257
自	-8.66381
身	-8.66507
館	-8.6675
ことから	-8.66776
会社	-8.66817
れ	-8.67166
武	-8.67195
a	-8.67208
としては	-8.67214
領	-8.67234
店	-8.67236
または	-8.67397
施設	-8.67476
尾	-8.67856
記	-8.68053
丸	-8.68069
座	-8.68089
情報	-8.6831
後の	-8.6832
清	-8.68432
に関する	-8.68793
当時の	-8.691
んだ	-8.69136
日から	-8.69359
戦争	-8.69467
ベ	-8.69528
スター	-8.69843
を受け	-8.70044
総	-8.70067
ナー	-8.70136
運動	-8.70389
広	-8.70481
通り	-8.71474
巻	-8.71529
ヴィ	-8.71776
といった	-8.72091
愛	-8.72162
治	-8.72338
組織	-8.72392
ただし	-8.72676
先	-8.72804
社会	-8.73011
翌	-8.73088
ピ	-8.73098
とされる	-8.73222
歳	-8.73235
空	-8.73749
対	-8.73823
史	-8.73939
業	-8.73954
32	-8.73967
々	-8.74045
女性	-8.74118
f	-8.74179
km	-8.74266
ように	-8.74712
ために	-8.74755
英	-8.74922
久	-8.74974
ット	-8.75083
品	-8.75091
er	-8.75103
条	-8.75363
ファ	-8.75563
エル	-8.75633
連	-8.75697
ほど	-8.75899
センター	-8.76183
35	-8.7621
のため	-8.76274
があった	-8.76324
クラブ	-8.76541
h	-8.76824
沢	-8.77004
ほか	-8.77425
群	-8.77513
'	-8.77531
相	-8.77533
五	-8.77549
ゼ	-8.77643
彼は	-8.77763
ソン	-8.77992
レン	-8.77997
これ	-8.78159
34	-8.78165
教	-8.78347
今	-8.78438
艦	-8.78558
記録	-8.78573
")	-8.78737
ホ	-8.78885
校	-8.78885
シャ	-8.78911
～	-8.78918
黒	-8.7893
時に	-8.79018
例	-8.79027
小学校	-8.79113
ファン	-8.79132
アー	-8.79138
経済	-8.79226
員	-8.79734
所属	-8.79827
とした	-8.80052
カル	-8.80258
岩	-8.80284
隊	-8.80442
80	-8.80479
大阪	-8.80493
すること	-8.80516
士	-8.8059
太	-8.80602
松	-8.80776
を経て	-8.80853
ことが	-8.80943
33	-8.81063
高等学校	-8.81077
全国	-8.81169
攻撃	-8.81281
路線	-8.81323
四	-8.81332
もある	-8.81402
したが	-8.8169
〜	-8.81862
党	-8.81867
当	-8.82171
45	-8.82191
土	-8.82271
ながら	-8.8274
ゲ	-8.82822
津	-8.82832
ジャ	-8.82879
技術	-8.82911
他	-8.8313
▁この	-8.83267
のために	-8.83379
()	-8.83469
▁C	-8.83645
宗	-8.83811
円	-8.84246
類	-8.84335
職	-8.84421
出身	-8.84458
車両	-8.84459
ヴァ	-8.84476
ば	-8.84571
へと	-8.84669
ロン	-8.84675
林	-8.84677
八	-8.84893
団	-8.84948
食	-8.84994
楽	-8.85003
大きな	-8.85107
字	-8.85162
リング	-8.85402
36	-8.85407
48	-8.85435
電	-8.85502
民	-8.85722
雄	-8.85818
ヌ	-8.85879
中学校	-8.86148
カン	-8.86179
させた	-8.86518
させる	-8.86706
以降	-8.86712
夫	-8.8672
御	-8.8679
u	-8.86914
こう	-8.86952
38	-8.87308
足	-8.87475
レイ	-8.8777
基	-8.87909
ビル	-8.8794
を行った	-8.87964
のうち	-8.8823
量	-8.88236
ものの	-8.88241
株式会社	-8.88306
同じ	-8.88445
▁B	-8.88457
タイ	-8.88546
なかった	-8.8857
よ	-8.88577
企業	-8.88649
場合	-8.88716
器	-8.88779
師	-8.88789
ar	-8.88868
波	-8.89198
||	-8.89311
状態	-8.89489
親	-8.89746
女子	-8.89837
母	-8.89937
優勝	-8.90121
表	-8.90141
を受けた	-8.90268
良	-8.90335
ぎ	-8.90405
よう	-8.90452
p	-8.90455
ではなく	-8.90627
側	-8.9069
ヘ	-8.90737
説	-8.90819
半	-8.90895
根	-8.90978
37	-8.91047
リア	-8.91286
販売	-8.91643
生活	-8.9166
国家	-8.91887
ぶ	-8.91893
バンド	-8.91899
47	-8.91911
製	-8.921
春	-8.92104
エン	-8.92163
達	-8.9249
協会	-8.92572
感	-8.92609
ること	-8.9269
in	-8.92709
)」	-8.92803
葉	-8.92825
千	-8.92869
年まで	-8.93119
再	-8.93128
管理	-8.9368
アメリカ合衆国	-8.93835
よりも	-8.93841
里	-8.93873
エンジン	-8.93934
中に	-8.94143
非	-8.94181
米	-8.94191
聖	-8.9422
ジョン	-8.94231
死	-8.94304
構造	-8.94384
開	-8.9442
機関	-8.94429
路	-8.94584
▁「	-8.94663
en	-8.94751
道路	-8.95009
港	-8.95074
経	-8.95159
月には	-8.9521
質	-8.95236
サービス	-8.95272
ん	-8.95275
航空	-8.95375
だけ	-8.954
を含む	-8.954
っ	-8.95417
あるいは	-8.95533
シングル	-8.95564
機能	-8.95589
70	-8.95611
集	-8.95615
利	-8.95677
病	-8.95746
オー	-8.95837
進	-8.95882
独立	-8.95924
火	-8.95967
け	-8.96003
っていた	-8.96047
のような	-8.9606
ガー	-8.96201
政府	-8.96228
ものである	-8.96339
高校	-8.96408
人が	-8.96439
弾	-8.96507
されており	-8.96728
調査	-8.96823
委員会	-8.97326
b	-8.97656
以上	-8.97687
90	-8.97862
団体	-8.97952
角	-8.98017
ひ	-8.98146
タン	-8.98177
▁なお	-8.98236
d	-8.98801
ロシア	-8.98821
悪	-8.98884
フィ	-8.99156
▁A	-8.99179
▁P	-8.99241
理	-8.99451
日には	-8.99574
守	-8.99622
環境	-8.99812
ホーム	-8.99858
ライ	-8.99934
第一	-8.9994
生産	-9.00037
命	-9.00269
建設	-9.00347
彼の	-9.00663
時代	-9.00919
ック	-9.01016
赤	-9.01064
湖	-9.01083
値	-9.01089
これらの	-9.01302
び	-9.01389
之	-9.01609
開始	-9.01778
発売	-9.01832
志	-9.01884
ヨーロッパ	-9.01918
場所	-9.0195
ルー	-9.01974
デビュー	-9.02042
さん	-9.02389
徳	-9.02403
ことで	-9.02442
北海道	-9.02454
藩	-9.02475
画	-9.02535
図	-9.02566
ブル	-9.0289
スポーツ	-9.0294
政治	-9.02978
鉄	-9.03074
モン	-9.03192
左	-9.03216
総合	-9.03221
on	-9.03331
チャ	-9.03353
レース	-9.03482
ビー	-9.03519
父	-9.03519
熱	-9.03565
使用	-9.03593
様々な	-9.03632
一般	-9.03731
64	-9.03782
上の	-9.0383
最初の	-9.03849
主に	-9.03894
市立	-9.04011
キャラクター	-9.04241
草	-9.04323
を務めた	-9.04441
開催	-9.04493
られる	-9.04523
右	-9.04579
ふ	-9.04585
再び	-9.04613
ジェ	-9.04658
の中で	-9.04684
▁M	-9.048
都	-9.0486
節	-9.04868
ね	-9.04885
戸	-9.04908
になっている	-9.04934
会議	-9.04967
an	-9.05009
&	-9.05062
o	-9.05172
保	-9.0519
増	-9.05277
シン	-9.05311
マル	-9.05483
永	-9.05551
生まれ	-9.05589
一部	-9.05625
ハイ	-9.05677
副	-9.05909
取り	-9.05994
岡	-9.06021
層	-9.06134
ランド	-9.06198
されて	-9.06315
動	-9.06319
敵	-9.06928
忠	-9.07056
そう	-9.07084
戦闘	-9.07597
契約	-9.076
42	-9.07726
藤	-9.07776
フェ	-9.07855
一方	-9.07857
られ	-9.07891
在	-9.07956
前に	-9.08041
公園	-9.08146
関	-9.08146
現在は	-9.08209
結果	-9.08307
z	-9.08393
夜	-9.08459
神社	-9.08585
46	-9.08588
人間	-9.08767
であったが	-9.08841
編成	-9.08881
たい	-9.08983
そのため	-9.09048
FC	-9.09064
においては	-9.09086
cm	-9.09107
▁of	-9.0914
ガン	-9.0917
工業	-9.09192
羽	-9.09194
ハー	-9.09252
Z	-9.09279
制作	-9.09482
段	-9.09695
誌	-9.09696
カード	-9.09792
球	-9.09796
年度	-9.09802
ご	-9.09842
森	-9.09881
大正	-9.10033
のある	-9.10156
させ	-9.1039
薬	-9.10401
出場	-9.1051
c	-9.10554
来	-9.10596
銀行	-9.1061
内の	-9.10746
特別	-9.10758
アニメ	-9.10768
作戦	-9.10938
パー	-9.11041
44	-9.11186
変更	-9.11207
l	-9.11222
堂	-9.1153
横	-9.11535
のように	-9.11722
CD	-9.11724
列車	-9.11783
パン	-9.11868
設計	-9.11905
属	-9.11915
京	-9.12026
しない	-9.12135
アイ	-9.12163
ところ	-9.12212
になり	-9.12265
ユ	-9.1229
k	-9.12318
コー	-9.12346
自然	-9.12429
族	-9.12652
世紀	-9.12669
人物	-9.12753
制度	-9.12824
なく	-9.12827
文字	-9.12951
紙	-9.12961
坂	-9.1299
メンバー	-9.13031
バン	-9.13358
にあった	-9.13393
ing	-9.13629
スーパー	-9.13907
状況	-9.13939
京都	-9.13954
章	-9.14062
声	-9.1409
交通	-9.14169
何	-9.14217
走	-9.14261
イタリア	-9.14343
崎	-9.14373
製造	-9.14424
49	-9.14463
陸軍	-9.14519
加	-9.14966
公開	-9.14998
出演	-9.15015
主義	-9.15098
中の	-9.15103
豊	-9.15199
反	-9.15231
敗	-9.15246
海軍	-9.1525
青	-9.15369
96	-9.15369
などで	-9.15465
初の	-9.15593
かった	-9.15652
最も	-9.15977
司	-9.16006
産業	-9.16092
教会	-9.16234
ような	-9.16237
未	-9.16244
日まで	-9.16245
ジュ	-9.16271
”	-9.16424
能力	-9.16443
以来	-9.16459
ラジオ	-9.16547
is	-9.16568
95	-9.16725
テン	-9.1678
現在	-9.16808
新しい	-9.16828
mm	-9.16868
デン	-9.16986
などが	-9.17009
r	-9.17103
六	-9.17148
産	-9.17352
43	-9.17367
七	-9.17589
運転	-9.17641
異	-9.17774
砲	-9.17822
自動車	-9.17833
帝国	-9.17912
せ	-9.17975
構成	-9.1801
区間	-9.18223
調	-9.18244
板	-9.1841
サー	-9.18539
部隊	-9.18555
ヴ	-9.18566
渡	-9.18571
レス	-9.1861
キー	-9.18642
太郎	-9.18824
ると	-9.18975
バル	-9.19135
デザイン	-9.19171
ハン	-9.19243
or	-9.1926
界	-9.1942
製作	-9.19421
イベント	-9.19493
JR	-9.19496
英語	-9.19551
表現	-9.19594
市の	-9.19647
39	-9.19706
装置	-9.19772
54	-9.19853
宇宙	-9.19862
議会	-9.19923
ライン	-9.1995
el	-9.19998
庁	-9.20046
利用	-9.20135
からは	-9.20142
以下	-9.20181
言	-9.20376
素	-9.204
試験	-9.20401
大統領	-9.20492
残	-9.20534
▁F	-9.20779
たち	-9.20904
帯	-9.21009
輸送	-9.21064
年代	-9.21068
スタ	-9.21115
工	-9.21237
超	-9.21292
枠	-9.21307
78	-9.21339
ネット	-9.21351
それぞれ	-9.2149
を行い	-9.21541
東京都	-9.21659
発表	-9.2176
像	-9.21776
500	-9.21849
運営	-9.21888
63	-9.22032
変	-9.22168
参加	-9.22195
経営	-9.22234
とし	-9.22374
部分	-9.22613
諸	-9.2264
樹	-9.22726
強	-9.22802
常	-9.22917
病院	-9.22922
満	-9.22925
源	-9.23034
便	-9.2315
g	-9.23197
転	-9.23197
これを	-9.23225
評価	-9.23371
血	-9.23371
の一部	-9.2338
79	-9.23671
河	-9.23875
しか	-9.24036
00	-9.24107
月から	-9.24131
家の	-9.24331
レー	-9.24407
られている	-9.24577
率	-9.24601
等の	-9.24633
個人	-9.24637
国民	-9.24695
指定	-9.24698
付	-9.24741
あり	-9.2475
任	-9.24758
祭	-9.24776
ぐ	-9.24825
条件	-9.24925
2000	-9.24926
としている	-9.25072
方式	-9.25179
秀	-9.2522
ザー	-9.25418
ニュー	-9.2545
登録	-9.25524
近	-9.25559
男性	-9.25625
伝	-9.25788
インド	-9.25872
トラ	-9.25943
夏	-9.25956
を中心に	-9.25986
戦で	-9.26008
上で	-9.26064
-1	-9.26167
ローマ	-9.26213
ライブ	-9.26394
企画	-9.26458
通信	-9.26536
園	-9.26554
低	-9.26611
者の	-9.26801
個	-9.26965
陽	-9.27004
パリ	-9.2702
解	-9.27129
効果	-9.27186
選挙	-9.27203
ドラマ	-9.27221
韓国	-9.27329
妻	-9.27378
速	-9.27632
▁G	-9.27639
選手権	-9.27703
名は	-9.27711
十	-9.27804
政権	-9.27943
に位置する	-9.27983
時の	-9.28001
▁W	-9.28017
階	-9.2809
などを	-9.28093
製品	-9.28094
▁H	-9.28204
学生	-9.28236
ドル	-9.28255
郷	-9.28286
よく	-9.28485
ロック	-9.28491
幸	-9.28553
状	-9.28674
以上の	-9.28703
できない	-9.2875
街	-9.28889
警察	-9.28903
入り	-9.28906
いて	-9.28927
かつて	-9.29068
であるが	-9.29098
に対し	-9.29105
ろ	-9.29141
好	-9.2919
乗	-9.29191
洋	-9.292
政策	-9.29329
」、「	-9.29337
時代の	-9.29449
ど	-9.29474
200	-9.295
によると	-9.29564
選	-9.29566
41	-9.2958
によれば	-9.29585
最大	-9.29683
浜	-9.29721
初代	-9.29743
紀	-9.2976
th	-9.29867
席	-9.29894
出版	-9.29957
ーン	-9.30078
55	-9.30216
越	-9.30285
教授	-9.30615
帝	-9.30793
差	-9.3083
絵	-9.30921
編	-9.31134
例えば	-9.31144
ダム	-9.31251
込み	-9.31501
ではない	-9.31513
以下の	-9.31531
なる	-9.31544
キャ	-9.31584
輪	-9.31617
龍	-9.31651
トリ	-9.31736
決定	-9.318
言語	-9.31972
ブラ	-9.31978
打	-9.31999
工場	-9.32039
アジア	-9.3204
張	-9.32066
首	-9.32094
秒	-9.32107
管	-9.32123
高い	-9.32177
居	-9.3218
に伴い	-9.32296
出身の	-9.32367
端	-9.32384
そ	-9.32459
設置	-9.32491
取	-9.32522
学者	-9.32569
作曲	-9.32632
最高	-9.32661
極	-9.32711
地球	-9.32819
提供	-9.32879
税	-9.32944
破	-9.32976
ックス	-9.3306
データ	-9.33069
玉	-9.33171
当初は	-9.33206
蔵	-9.33364
跡	-9.33482
小説	-9.3351
竹	-9.33521
フリー	-9.33522
最後の	-9.33827
人口	-9.33906
漫画	-9.33951
ワン	-9.33976
が多い	-9.33981
サイ	-9.34015
le	-9.3404
ジー	-9.34121
対応	-9.34195
▁L	-9.34228
人気	-9.34355
彦	-9.34405
計	-9.3446
急	-9.34617
どう	-9.34632
将軍	-9.34675
以後	-9.34739
能	-9.34751
“	-9.3479
勢	-9.34915
映像	-9.34941
65	-9.3506
引	-9.35094
事故	-9.35094
▁第	-9.3511
修	-9.35151
勝利	-9.35218
運用	-9.35252
秋	-9.35286
フル	-9.35336
ノー	-9.35439
骨	-9.35522
必要	-9.35683
仏	-9.35689
としての	-9.35725
国道	-9.35731
造	-9.35806
が行われた	-9.35921
案	-9.36005
宝	-9.36219
物語	-9.36233
方法	-9.36276
予定	-9.36298
用の	-9.36311
断	-9.36349
300	-9.36381
スペイン	-9.36396
62	-9.36475
私	-9.36678
x	-9.3671
担当	-9.36731
落	-9.36746
遠	-9.3684
共	-9.36911
作家	-9.36913
付け	-9.36938
部門	-9.36988
たが	-9.37034
撮影	-9.37036
だったが	-9.37212
2010	-9.37308
浦	-9.37331
と同じ	-9.37339
陣	-9.37544
ッツ	-9.37638
列	-9.37641
歴史	-9.37683
周	-9.37716
トゥ	-9.37825
舞台	-9.37846
et	-9.37853
ch	-9.37965
▁2010	-9.37977
内容	-9.37983
向	-9.37985
キン	-9.37988
向け	-9.38188
76	-9.38361
佐	-9.38449
科学	-9.38495
天皇	-9.38516
の一つ	-9.3853
南部	-9.38585
w	-9.38642
チェ	-9.38677
雑誌	-9.38687
研究所	-9.38729
工事	-9.38766
st	-9.38865
ヴェ	-9.38916
行動	-9.39055
▁the	-9.39081
客	-9.391
写真	-9.39158
形式	-9.39166
99	-9.39192
頼	-9.39195
百	-9.39223
演奏	-9.39228
塩	-9.39267
香	-9.3932
細胞	-9.39337
NHK	-9.39381
第二	-9.39493
動物	-9.39513
ウィ	-9.39707
子供	-9.3972
市民	-9.39795
比	-9.39808
末	-9.39827
58	-9.39834
が多く	-9.39848
建築	-9.39985
程度	-9.40241
系統	-9.40313
タイトル	-9.40318
▁2011	-9.40473
為	-9.40476
52	-9.40528
ed	-9.40555
ニューヨーク	-9.40595
毛	-9.4067
殺	-9.40717
にあたる	-9.40723
格	-9.40889
▁T	-9.40939
せん	-9.40987
75	-9.40996
雲	-9.41005
▁2017	-9.41079
自身の	-9.41154
初めて	-9.41239
ていたが	-9.41293
起	-9.41404
ほぼ	-9.41433
経験	-9.41446
隆	-9.41451
単	-9.41604
仁	-9.41634
池	-9.41639
若	-9.41721
こともある	-9.41778
宿	-9.41779
▁2012	-9.41841
方面	-9.41848
ホール	-9.41875
展開	-9.41881
ウス	-9.41948
雪	-9.41985
▁2014	-9.41987
空港	-9.42032
設定	-9.42069
ール	-9.42075
条約	-9.42199
福	-9.42289
▁2016	-9.42307
終了	-9.42369
視	-9.42398
メーカー	-9.42407
令	-9.42556
▁2015	-9.42613
▁R	-9.42633
務	-9.42714
家族	-9.42818
us	-9.42887
59	-9.42899
国内	-9.42973
ことができる	-9.43051
セン	-9.43091
56	-9.43128
市場	-9.43199
技	-9.43242
富	-9.43244
最	-9.43274
支援	-9.43317
発行	-9.43412
台湾	-9.4348
とき	-9.4353
華	-9.43612
していたが	-9.43621
訳	-9.43649
ジョ	-9.43683
カップ	-9.43696
俳優	-9.44013
泉	-9.44014
望	-9.44146
ようになった	-9.44162
意	-9.44363
縁	-9.44398
▁D	-9.44399
ていない	-9.44458
弁	-9.44498
までの	-9.44499
遊	-9.44561
味	-9.44569
公演	-9.44587
クス	-9.44631
表記	-9.4464
自ら	-9.44747
銀	-9.44754
新聞	-9.44807
ガス	-9.44808
数は	-9.44845
▁2013	-9.44876
直接	-9.44943
かつ	-9.44958
ヨ	-9.45116
核	-9.45153
盤	-9.45279
▁2009	-9.45293
観	-9.45307
ダン	-9.45314
トップ	-9.45336
オブ	-9.45339
クロ	-9.45367
大臣	-9.45399
のための	-9.45419
額	-9.45461
57	-9.45487
てきた	-9.4552
コース	-9.4553
劇場	-9.45568
店舗	-9.45719
瀬	-9.45766
Q	-9.4579
を受けて	-9.45939
減	-9.45962
77	-9.45979
以外の	-9.46032
飛行	-9.46108
クラス	-9.46119
するために	-9.46137
配	-9.4616
もあり	-9.46208
マイ	-9.46277
ディー	-9.463
布	-9.46318
全体	-9.46324
重要な	-9.46361
ニア	-9.46374
バイ	-9.46504
記念	-9.46511
98	-9.46633
自由	-9.46685
現代	-9.46772
IC	-9.46842
2009	-9.46877
トー	-9.46999
67	-9.47041
メートル	-9.47054
難	-9.47058
艦隊	-9.47149
理論	-9.47156
弘	-9.47166
軍の	-9.47168
軍事	-9.472
商	-9.47234
89	-9.47236
▁その後	-9.47242
助	-9.47316
報告	-9.4735
66	-9.47382
内に	-9.47384
そこで	-9.47446
電子	-9.47457
2008	-9.4747
者が	-9.47565
文学	-9.47623
行為	-9.47628
とされている	-9.47659
引き	-9.47697
幅	-9.4771
倉	-9.47727
九州	-9.47845
オン	-9.47864
かい	-9.47911
入れ	-9.47925
2011	-9.47996
2007	-9.48028
兄	-9.48059
前の	-9.48064
服	-9.48085
九	-9.48094
合併	-9.48176
88	-9.48279
の大	-9.48303
ドゥ	-9.48319
行政	-9.48355
後は	-9.48393
異なる	-9.48557
▁2008	-9.48594
▁2018	-9.48597
ニュース	-9.48616
代目	-9.48635
軽	-9.48722
共和国	-9.48752
時期	-9.48793
府	-9.48842
はこの	-9.48873
兼	-9.489
整備	-9.48901
元年	-9.4893
勢力	-9.48983
順	-9.49013
ツアー	-9.49062
者は	-9.49074
せず	-9.49121
はその	-9.49134
霊	-9.4917
+	-9.49216
されていない	-9.4924
自分の	-9.4924
線の	-9.49263
鳥	-9.49294
の間	-9.49399
51	-9.496
86	-9.49631
ベン	-9.49652
批判	-9.49717
85	-9.49786
参	-9.49801
69	-9.49808
の第	-9.49849
卒業	-9.49975
壁	-9.50146
ブリ	-9.50225
人は	-9.50269
目的	-9.50273
喜	-9.50485
王国	-9.50584
▁K	-9.50585
漢	-9.50595
要	-9.50745
酒	-9.50778
建	-9.50842
健	-9.50861
少年	-9.50897
プレイ	-9.5095
するため	-9.51038
切	-9.51131
at	-9.51152
おり	-9.51165
商品	-9.51233
湾	-9.51326
を見	-9.51327
放	-9.5144
実験	-9.51442
を持ち	-9.5145
スタジオ	-9.51476
特	-9.51513
協力	-9.51571
会長	-9.51577
関連	-9.51595
片	-9.51621
バック	-9.51622
芸術	-9.51634
夢	-9.5164
業務	-9.5179
アップ	-9.51804
専門	-9.51816
メディア	-9.52111
同時に	-9.52163
▁しかし	-9.52209
場合は	-9.52243
興	-9.52267
リスト	-9.52337
しい	-9.52375
キング	-9.52432
72	-9.52434
運行	-9.52442
野球	-9.52552
ステージ	-9.5259
景	-9.52604
ケン	-9.52734
it	-9.52872
▁2007	-9.52877
一方で	-9.52893
完成	-9.52978
でもある	-9.53012
ur	-9.53122
ことがある	-9.53131
▁E	-9.53133
統一	-9.53183
軸	-9.53247
従	-9.53303
万円	-9.53314
メイン	-9.5333
料	-9.53339
オリンピック	-9.53361
作業	-9.53376
スキー	-9.53431
存在	-9.53465
積	-9.53529
対象	-9.53579
ボン	-9.53646
名古屋	-9.5369
2012	-9.53837
魚	-9.53896
連続	-9.53963
なり	-9.54073
変化	-9.54088
んで	-9.54098
植物	-9.54256
結	-9.54263
結婚	-9.54269
細	-9.54273
ポイント	-9.5431
報	-9.54331
ッド	-9.54349
2006	-9.54377
江戸	-9.54436
費	-9.54467
ダイ	-9.54481
横浜	-9.54519
保護	-9.54547
典	-9.54592
国の	-9.54611
搭載	-9.54643
甲	-9.54684
The	-9.54686
深	-9.54705
営業	-9.54763
裏	-9.54819
革命	-9.54834
期間	-9.5496
茶	-9.54972
ブランド	-9.55093
かん	-9.55227
倍	-9.55376
68	-9.55385
系の	-9.55394
雨	-9.55556
移動	-9.5559
したため	-9.55646
際	-9.55652
共同	-9.55711
伊	-9.55853
延	-9.55871
廃止	-9.55937
反応	-9.5604
矢	-9.56059
空間	-9.56099
電気	-9.56153
奥	-9.5622
セル	-9.56353
れば	-9.56357
装	-9.56395
米国	-9.56614
処理	-9.56625
べ	-9.56653
表示	-9.56692
しょう	-9.56707
にとって	-9.56744
北部	-9.56827
海外	-9.56838
レコード	-9.56887
プラ	-9.56901
新たな	-9.56957
出し	-9.57009
配信	-9.57075
廃	-9.5714
制御	-9.57197
恵	-9.57201
連載	-9.57215
サイト	-9.57232
→	-9.57253
収録	-9.57283
オリジナル	-9.57289
ベスト	-9.57318
図書館	-9.57321
するなど	-9.5738
広く	-9.57434
アメリカの	-9.57458
競技	-9.57504
娘	-9.57536
集団	-9.57615
ロス	-9.5767
タイム	-9.57676
53	-9.57705
87	-9.57711
ホテル	-9.57721
92	-9.57753
設立	-9.57836
プロジェクト	-9.57925
同盟	-9.57948
介	-9.57949
早	-9.58018
死去	-9.58077
反対	-9.5812
ロンドン	-9.58238
楽曲	-9.58281
女優	-9.58293
学園	-9.583
アス	-9.58356
なら	-9.58491
クラ	-9.58508
最終	-9.58563
詩	-9.58572
61	-9.58644
持	-9.58898
枚	-9.58925
名前	-9.58926
防	-9.58947
74	-9.58961
料理	-9.58971
ライト	-9.59109
乱	-9.59141
勝ち	-9.59166
メン	-9.59183
ティー	-9.59245
これら	-9.59305
男子	-9.59344
オーストラリア	-9.59344
民族	-9.59387
するが	-9.59409
交	-9.59413
▁※	-9.59439
友	-9.59464
84	-9.59504
美術	-9.59551
が存在する	-9.59594
割	-9.596
イングランド	-9.59724
化学	-9.59728
酸	-9.5974
ことは	-9.59756
歌手	-9.59757
400	-9.59809
冬	-9.5983
オランダ	-9.59929
re	-9.60069
時には	-9.60153
年より	-9.60187
肉	-9.60227
kg	-9.6024
送	-9.60353
候補	-9.6036
2014	-9.60517
堀	-9.60533
2013	-9.60679
旅	-9.60696
症	-9.60756
国立	-9.60816
項	-9.60823
リス	-9.60893
実施	-9.60946
ミー	-9.61036
一部の	-9.6127
デル	-9.61382
モー	-9.61393
議	-9.6145
全て	-9.61491
81	-9.61496
応	-9.61523
圏	-9.61682
特徴	-9.6171
康	-9.6175
栄	-9.61845
ミン	-9.6192
失	-9.61948
規定	-9.61951
にかけて	-9.6199
それを	-9.62066
銃	-9.62129
体制	-9.62134
報道	-9.62162
このような	-9.62164
制限	-9.62166
留	-9.62189
行き	-9.62246
頃	-9.62313
域	-9.62326
具	-9.62492
周辺	-9.62497
岸	-9.62518
グリ	-9.62551
83	-9.62615
DVD	-9.62635
シャー	-9.62646
持ち	-9.6265
分類	-9.62652
エネルギー	-9.62669
の戦い	-9.62735
』『	-9.62804
様	-9.62804
することで	-9.62804
予選	-9.62807
シェ	-9.62872
付き	-9.62919
竜	-9.62921
シティ	-9.62996
ヴァー	-9.63023
せい	-9.6303
▁2006	-9.63047
住	-9.63089
クリ	-9.63134
君	-9.63175
機構	-9.63238
法律	-9.6324
自分	-9.63285
単位	-9.63327
多く	-9.63371
このため	-9.63438
形態	-9.6344
はない	-9.63502
降	-9.63507
営	-9.63531
行われた	-9.63565
毎年	-9.63619
土地	-9.63636
ゆ	-9.63654
沼	-9.63668
防衛	-9.63712
使	-9.6372
郎	-9.6372
密	-9.63734
観測	-9.63801
▁2019	-9.63804
次の	-9.63856
テル	-9.6387
es	-9.6397
ビデオ	-9.64009
開業	-9.64058
柄	-9.64073
ジャン	-9.64097
印	-9.64169
幕	-9.64173
ショー	-9.64238
連邦	-9.64252
全ての	-9.64494
農	-9.645
の一	-9.64521
成長	-9.64522
兄弟	-9.64596
サッカー	-9.64612
善	-9.64623
を行っている	-9.64637
の間に	-9.64731
の娘	-9.64814
していない	-9.64873
上に	-9.64919
2005	-9.64924
優	-9.65041
速度	-9.65119
2015	-9.65128
退	-9.65242
基準	-9.65272
94	-9.6528
ホー	-9.65296
いずれも	-9.65302
などに	-9.65311
イギリスの	-9.65311
番号	-9.65312
内で	-9.65352
統合	-9.65355
トル	-9.65405
としても	-9.65734
を取り	-9.65771
リオ	-9.65775
最大の	-9.65805
接	-9.65941
セット	-9.65961
コル	-9.65982
離	-9.66014
採用	-9.66118
位置	-9.66186
貴	-9.66302
医療	-9.66345
TV	-9.66348
得点	-9.66478
隻	-9.66523
br	-9.66559
まず	-9.66641
フォン	-9.66759
限定	-9.6678
える	-9.66847
逆	-9.66956
これが	-9.66995
グル	-9.67013
主な	-9.67024
姓	-9.67029
レベル	-9.67052
散	-9.67082
間の	-9.67196
距離	-9.67203
を受ける	-9.67252
博	-9.67362
イー	-9.67415
内閣	-9.67455
精	-9.67469
宗教	-9.67537
のもの	-9.6759
犬	-9.6767
とその	-9.67686
受	-9.67692
温泉	-9.67716
観光	-9.67807
を務める	-9.67808
v	-9.67834
日本語	-9.67947
82	-9.67969
ッシュ	-9.68114
慶	-9.68131
やま	-9.68165
非常に	-9.68203
複数の	-9.68206
コンピュータ	-9.68229
孫	-9.68257
リリース	-9.68317
軌道	-9.68333
網	-9.68356
-2	-9.68357
首相	-9.68374
ドン	-9.68437
原作	-9.68472
ソ連	-9.68477
("	-9.68485
180	-9.68501
CM	-9.6851
西部	-9.68596
標準	-9.68627
指導	-9.68644
事務所	-9.68678
交換	-9.68747
しばしば	-9.68867
丁目	-9.68896
罪	-9.68933
圧	-9.68942
称	-9.68998
柳	-9.6903
智	-9.69056
ステ	-9.69152
発展	-9.69157
の研究	-9.69238
児	-9.69293
基地	-9.69313
改革	-9.69344
ント	-9.69372
97	-9.69384
障害	-9.6945
as	-9.69458
新たに	-9.69469
社長	-9.69473
李	-9.69499
ミュージック	-9.69512
湯	-9.69594
タル	-9.69656
塚	-9.69672
境	-9.69706
ユニット	-9.69776
ポーランド	-9.69778
訓練	-9.69842
仕様	-9.69855
グラ	-9.69939
陸	-9.69943
ジャー	-9.69948
となっていた	-9.6995
がいる	-9.69971
委員	-9.7002
諸島	-9.70024
倒	-9.70047
シーン	-9.70053
を指す	-9.70054
したり	-9.70054
盛	-9.7006
っており	-9.70089
精神	-9.70147
初期	-9.70185
名称	-9.7037
件	-9.70379
2016	-9.70417
大型	-9.70493
皇帝	-9.70514
賀	-9.7062
ップ	-9.70669
別の	-9.70679
げ	-9.70687
継続	-9.7079
翌年	-9.70801
チャー	-9.70832
ゲン	-9.70854
すべて	-9.70861
もので	-9.70909
強い	-9.70931
博物館	-9.70982
余	-9.71124
辺	-9.71134
と呼ぶ	-9.71177
コーナー	-9.71238
拡大	-9.71279
だと	-9.71291
中心	-9.71298
ST	-9.71333
月まで	-9.71335
冠	-9.7134
▁km	-9.71398
日本人	-9.71414
油	-9.71431
ドー	-9.71443
地下	-9.71455
▁O	-9.71491
形で	-9.71559
学部	-9.71631
生徒	-9.71644
分野	-9.71753
切り	-9.71809
チン	-9.71833
可能	-9.71846
の名前	-9.71851
ことが多い	-9.71998
ic	-9.72073
復帰	-9.72124
関東	-9.72132
ハウス	-9.72314
ro	-9.72355
ジン	-9.7236
ペン	-9.72392
主人公	-9.72473
OS	-9.72499
ad	-9.72525
アメリカ合衆国の	-9.72556
投手	-9.72587
更に	-9.72607
議員	-9.72618
とう	-9.72636
マーク	-9.72642
確認	-9.72648
筋	-9.72669
を参照	-9.72696
会員	-9.72703
弟	-9.72716
になって	-9.72735
装備	-9.72785
剤	-9.72794
アンド	-9.72852
アフリカ	-9.72853
住民	-9.72872
終	-9.72946
ウェイ	-9.7301
を獲得した	-9.73024
73	-9.73156
農業	-9.7318
広島	-9.73186
受け	-9.73199
読み	-9.73282
ーズ	-9.73327
un	-9.73336
を結ぶ	-9.73495
ベイ	-9.73536
ファー	-9.73546
機械	-9.73615
投	-9.73674
カラ	-9.73694
もしくは	-9.73694
文書	-9.73727
過	-9.73752
本作	-9.73764
ia	-9.73777
スク	-9.73869
綱	-9.73871
▁m	-9.73896
プログラム	-9.73907
指	-9.73917
許	-9.73961
オス	-9.74083
宇	-9.7409
書き	-9.74099
▁N	-9.74134
トロ	-9.74165
顔	-9.74181
共通	-9.74209
知事	-9.74261
世の	-9.74287
師団	-9.74319
レッド	-9.74346
が行われ	-9.7436
収	-9.74487
商業	-9.74508
材	-9.74512
連合	-9.74517
本部	-9.74536
電力	-9.74557
ブルー	-9.74572
劇	-9.74581
伯	-9.7463
子の	-9.74729
93	-9.74776
側の	-9.74783
傷	-9.74807
カナダ	-9.74817
桜	-9.74865
改造	-9.74935
略	-9.75186
だい	-9.75389
登	-9.75408
大陸	-9.7547
通常	-9.75483
言葉	-9.75488
専用	-9.75517
獲得	-9.7552
2017	-9.75524
にあり	-9.75528
延長	-9.7558
ra	-9.75626
以降は	-9.7568
ナン	-9.75695
になると	-9.75729
万人	-9.75747
支配	-9.75767
ミニ	-9.75809
スタイル	-9.75815
機体	-9.75828
ワールド	-9.75866
il	-9.75886
同じく	-9.75913
で行われた	-9.75936
ボー	-9.76052
を示す	-9.76079
アナ	-9.76136
名の	-9.76139
労働	-9.76186
なか	-9.76205
砂	-9.76228
▁2005	-9.76293
地元	-9.76302
出す	-9.76391
貞	-9.76401
ことになる	-9.76411
バラ	-9.76453
博士	-9.76461
と考えられている	-9.76463
カール	-9.76659
本塁打	-9.76667
打ち	-9.76669
配置	-9.76709
引退	-9.76722
操作	-9.76723
減少	-9.76763
床	-9.76773
定義	-9.7679
かわ	-9.76853
俊	-9.76881
朝鮮	-9.76911
いくつかの	-9.76924
を通じて	-9.76996
プレ	-9.77045
ラム	-9.77088
IN	-9.77109
一人	-9.77112
孝	-9.77144
彼	-9.772
掲載	-9.77232
ソー	-9.77263
億	-9.77349
領域	-9.77355
当初	-9.77361
トラック	-9.77401
平均	-9.77432
関西	-9.77443
塔	-9.7745
資料	-9.77491
フォ	-9.77672
要素	-9.77689
×	-9.77799
緑	-9.77866
連盟	-9.77908
クル	-9.7795
1000	-9.77987
パーク	-9.78002
の後	-9.78006
ざ	-9.78037
のち	-9.78059
基本	-9.7809
ヴァン	-9.78105
の場合	-9.78111
指揮	-9.7819
唐	-9.78219
2004	-9.78339
をもって	-9.78375
となって	-9.78393
被	-9.78503
生物	-9.78508
タウン	-9.7858
術	-9.78754
にして	-9.78767
近く	-9.7879
出した	-9.78803
飛	-9.78804
脱	-9.78889
牛	-9.78909
フォー	-9.78961
連絡	-9.7908
ジョージ	-9.79085
対策	-9.79131
分離	-9.7914
神戸	-9.79173
医	-9.79208
ボール	-9.79244
がない	-9.79247
東部	-9.79302
小さな	-9.79399
を開始した	-9.79434
部の	-9.79497
成功	-9.79529
立ち	-9.79727
短	-9.79755
の名	-9.79777
ことに	-9.79837
剣	-9.79887
本線	-9.79892
市内	-9.80024
種類	-9.80056
寄	-9.80097
の子	-9.80186
週間	-9.80219
2018	-9.80228
けん	-9.80243
房	-9.80292
MA	-9.80308
準	-9.80395
杯	-9.80417
射	-9.8044
仲	-9.80442
ストーリー	-9.80468
=38	-9.80474
純	-9.8049
まま	-9.80504
ソフト	-9.80524
II	-9.80574
いわゆる	-9.80597
たちは	-9.80598
昌	-9.80779
主演	-9.80835
に近い	-9.8086
されたが	-9.81078
そのまま	-9.81096
脳	-9.81105
歳で	-9.81119
ユー	-9.81126
週	-9.81136
ほ	-9.8114
資金	-9.81151
記事	-9.81154
丘	-9.81243
それは	-9.81247
礼	-9.81249
ヶ月	-9.81326
しく	-9.81462
きた	-9.81497
地震	-9.81536
=22	-9.81552
黄	-9.81713
91	-9.81719
=39	-9.81837
チュ	-9.81874
指摘	-9.81917
しん	-9.81919
日本では	-9.81925
してきた	-9.81934
阿	-9.81948
オル	-9.82022
am	-9.82037
ネス	-9.82096
150	-9.82125
こうした	-9.82127
いている	-9.82268
までは	-9.82276
te	-9.82287
通算	-9.82314
安全	-9.82333
也	-9.82387
一覧	-9.82422
まる	-9.82441
フォード	-9.82447
独	-9.82471
のか	-9.82582
においても	-9.82623
ピアノ	-9.82631
フランスの	-9.82664
高速	-9.82687
追	-9.82709
ルート	-9.82717
方向	-9.82775
絶	-9.8278
少女	-9.82815
説明	-9.82825
um	-9.82907
型の	-9.82961
シア	-9.82983
ブー	-9.82989
意識	-9.8299
全日本	-9.83039
投票	-9.83054
』、『	-9.83063
機器	-9.83099
ゴール	-9.83143
殿	-9.83181
ol	-9.83196
車体	-9.83241
オーストリア	-9.83271
太陽	-9.83305
プロデューサー	-9.83347
ヴォ	-9.83368
▁I	-9.83371
増加	-9.8338
静	-9.83423
情	-9.83453
これにより	-9.83496
部屋	-9.83527
=35	-9.83548
評	-9.83607
考え	-9.83697
に属する	-9.83699
住宅	-9.83716
導入	-9.8374
策	-9.83791
ラス	-9.83798
オープン	-9.83844
相手	-9.83861
ッカー	-9.83869
ation	-9.8391
la	-9.84019
エア	-9.84065
遺	-9.84093
ます	-9.84127
弱	-9.84157
被害	-9.84195
記載	-9.84268
古代	-9.84274
氏の	-9.8434
戦後	-9.84358
題	-9.84515
ポール	-9.84533
発生	-9.84546
ビン	-9.84556
イル	-9.84558
すなわち	-9.84593
エイ	-9.8462
歯	-9.84772
▁()	-9.84781
茂	-9.84796
ゴー	-9.84824
ランキング	-9.84838
法人	-9.84838
公式	-9.84866
することができる	-9.84927
競走	-9.84927
ベース	-9.84968
ノン	-9.84985
ゾ	-9.84993
だけで	-9.85003
ほとんど	-9.85023
バージョン	-9.85032
_	-9.85043
思想	-9.85058
の開発	-9.85115
タイプ	-9.85173
コード	-9.85291
影響	-9.85298
作詞	-9.85298
インターネット	-9.85363
内部	-9.85396
除	-9.85399
、2010	-9.85468
唯一の	-9.85474
カラー	-9.85507
なし	-9.85603
名が	-9.85632
ぼ	-9.85674
交渉	-9.85695
...	-9.85792
▁V	-9.85902
▁日本	-9.85977
ごとに	-9.86045
回転	-9.86047
メル	-9.86082
PC	-9.86112
▁J	-9.86174
進出	-9.86201
デジタル	-9.86214
すれば	-9.86238
ブラジル	-9.86265
号線	-9.86269
軍は	-9.86291
プル	-9.86292
ピー	-9.8635
エー	-9.86413
ワー	-9.86446
腕	-9.86452
温	-9.86507
ri	-9.86521
ウィリアム	-9.86522
を意味する	-9.86554
プレイヤー	-9.86556
枝	-9.86578
記述	-9.8662
自己	-9.86664
デュ	-9.86704
思	-9.86753
禁止	-9.86763
=37	-9.86784
の中	-9.86815
欧州	-9.86848
ロード	-9.86918
!」	-9.86936
休	-9.87041
長い	-9.87145
際に	-9.87167
=28	-9.87293
供給	-9.87302
だけでなく	-9.87351
停止	-9.87353
性能	-9.87369
この時	-9.874
憲法	-9.8742
SS	-9.8744
エス	-9.87462
地上	-9.87463
亜	-9.87534
パス	-9.87538
=23	-9.87544
もう	-9.87583
ジャパン	-9.87678
澤	-9.87691
たり	-9.87723
を果たした	-9.87774
資格	-9.87778
ティング	-9.87803
検	-9.87813
対立	-9.87865
貴族	-9.87913
時代に	-9.87916
高等	-9.87922
理由	-9.8795
炎	-9.87954
柱	-9.88065
編集	-9.88139
ヘル	-9.88157
ともに	-9.8817
クト	-9.88181
脚	-9.88321
紀元前	-9.88324
つく	-9.88406
通称	-9.88417
東北	-9.88436
=26	-9.8849
流れ	-9.88536
祖	-9.88629
デー	-9.88663
ここで	-9.88668
込んだ	-9.88677
登場	-9.88678
州の	-9.88702
初期の	-9.88703
奈	-9.88703
期待	-9.88813
その他の	-9.88849
交流	-9.8886
民間	-9.88915
を務め	-9.88993
折	-9.89033
クー	-9.89127
設備	-9.89224
解散	-9.89237
ドイツの	-9.89251
杉	-9.89267
示	-9.89304
史上	-9.89314
多数の	-9.89383
スタッフ	-9.89488
帰	-9.895
名を	-9.89512
ちゃん	-9.89552
=25	-9.89599
一時	-9.89601
貨物	-9.89605
没	-9.89622
補	-9.89651
のこと	-9.89655
の元	-9.89728
に入り	-9.89732
球団	-9.89808
の中心	-9.89811
についても	-9.89817
多数	-9.89823
展示	-9.89871
合計	-9.89873
したもの	-9.89922
、2009	-9.89925
その他	-9.90039
デイ	-9.90102
カメラ	-9.90114
AT	-9.90153
課	-9.90252
サイド	-9.90267
ダンス	-9.9028
スタン	-9.90283
レット	-9.9033
市長	-9.90353
途中	-9.90368
ていく	-9.90391
、2007	-9.90405
ジュニア	-9.90465
ネットワーク	-9.90472
いい	-9.90488
一郎	-9.9049
ボル	-9.90495
意味	-9.90495
振り	-9.90498
実際に	-9.90538
声優	-9.90542
▁大	-9.90556
物質	-9.90574
-3	-9.90602
任務	-9.90625
!』	-9.90643
年にかけて	-9.90648
派の	-9.90663
出力	-9.90671
筆	-9.90674
ダル	-9.90709
のほか	-9.90731
中で	-9.90757
ポン	-9.90879
すべての	-9.91056
姫	-9.91076
モード	-9.91137
売	-9.91154
彼女	-9.9117
眼	-9.91236
町の	-9.91248
のメンバー	-9.91259
譲	-9.91286
焼	-9.91298
ent	-9.91333
本社	-9.91389
マス	-9.91392
、2008	-9.9147
衣	-9.91496
扱い	-9.91527
テーマ	-9.91535
建物	-9.91644
フィールド	-9.91654
次郎	-9.91662
亀	-9.91681
の影響	-9.9175
コーチ	-9.91807
するという	-9.91821
ブラック	-9.91831
給	-9.91844
価	-9.91869
スウェーデン	-9.91884
からなる	-9.91933
メイ	-9.92005
老	-9.92034
失敗	-9.92155
戻	-9.92165
ただ	-9.92177
接続	-9.92209
翼	-9.92213
ほう	-9.92257
電話	-9.92269
歩	-9.92273
王座	-9.92278
▁de	-9.92319
活躍	-9.9234
=29	-9.92351
パラ	-9.92354
可	-9.92364
愛知県	-9.92555
分の	-9.92556
ディア	-9.92598
上げ	-9.92638
これに	-9.9265
を得た	-9.92805
違い	-9.9286
目標	-9.92958
GP	-9.92975
護	-9.92987
与	-9.93045
ot	-9.93051
チョ	-9.93053
2003	-9.93055
保存	-9.93083
計算	-9.93115
中継	-9.93165
スタート	-9.93271
鈴木	-9.93298
伝説	-9.93307
その後も	-9.93308
方針	-9.93327
込む	-9.93347
国鉄	-9.93371
らず	-9.93513
同社	-9.93532
と言う	-9.93548
選択	-9.93643
ものであった	-9.93688
ッチ	-9.93732
化した	-9.93735
です	-9.93777
クロス	-9.938
▁and	-9.93809
備	-9.93885
める	-9.93974
PS	-9.93976
提案	-9.93999
姿	-9.94159
結局	-9.94177
もあった	-9.94188
窓	-9.94219
自治	-9.94312
と同様に	-9.94333
平和	-9.94344
共に	-9.94434
セイ	-9.94439
当時は	-9.94443
となっており	-9.94458
れる	-9.94468
要求	-9.94588
!!	-9.94611
少	-9.94621
旅行	-9.94646
紹介	-9.94674
ドラ	-9.94691
li	-9.94747
RO	-9.94802
、2011	-9.9493
埼玉県	-9.94954
メキシコ	-9.94961
自治体	-9.94973
菌	-9.95043
臣	-9.95165
▁2004	-9.95167
大学の	-9.95189
鬼	-9.95202
▁formula	-9.95283
現在では	-9.95305
できた	-9.9533
デス	-9.95341
田中	-9.95398
じょう	-9.95445
影	-9.95464
魔	-9.95507
エリア	-9.95515
01	-9.95518
ブレ	-9.95542
ゲル	-9.95602
、2006	-9.95619
封	-9.95679
800	-9.95686
日より	-9.95696
舞	-9.95702
セント	-9.95709
敬	-9.95722
ワイ	-9.95753
恋	-9.95755
航空機	-9.95786
率いる	-9.95842
ケース	-9.95898
刀	-9.959
に入	-9.95905
を有する	-9.95945
シル	-9.95951
ウェ	-9.95986
命令	-9.95995
自身	-9.96063
練習	-9.96094
穴	-9.961
重要	-9.96171
一般に	-9.96189
あまり	-9.96206
=33	-9.9628
養	-9.96283
結合	-9.96332
プリ	-9.96341
パル	-9.96353
むら	-9.96363
たか	-9.96393
までに	-9.96412
更新	-9.96414
旗	-9.96425
普通	-9.96498
階級	-9.96506
太平洋	-9.96551
劉	-9.9656
復活	-9.96599
潮	-9.96624
1990	-9.96711
価格	-9.96785
いない	-9.96868
あった	-9.9687
のちに	-9.96876
トンネル	-9.96908
尚	-9.96941
ようになる	-9.9698
ぬ	-9.96997
ポー	-9.97005
ラル	-9.97031
付近	-9.97041
2002	-9.97042
発見	-9.97081
年代に	-9.9711
オール	-9.97118
始め	-9.97119
半島	-9.9714
可能な	-9.97141
独自の	-9.97189
ごう	-9.97208
支	-9.97213
部長	-9.9724
カリ	-9.9729
良い	-9.97316
しゃ	-9.97319
鎮	-9.97356
らが	-9.97406
羅	-9.9744
レギュラー	-9.97481
衆	-9.97497
固定	-9.97536
した後	-9.97562
改良	-9.97595
アウト	-9.97597
自動	-9.97603
しなかった	-9.9761
続く	-9.97662
宣言	-9.97682
の結果	-9.97699
武器	-9.97702
を用いて	-9.97708
連隊	-9.97716
統治	-9.97721
可能性	-9.97897
2001	-9.97908
改正	-9.97997
従来の	-9.98005
組合	-9.98084
BS	-9.9812
ネー	-9.98156
関数	-9.9824
医学	-9.98256
皇	-9.98287
三郎	-9.98354
会場	-9.9836
やがて	-9.98371
導	-9.98406
合い	-9.9842
思い	-9.98424
フレ	-9.98427
)4	-9.98507
改善	-9.98529
ソロ	-9.98537
大きく	-9.98584
加入	-9.98593
TBS	-9.98602
しま	-9.98675
プレー	-9.98676
ul	-9.98711
グランプリ	-9.98736
事実	-9.98766
の歴史	-9.98813
由	-9.98911
完全	-9.98928
納	-9.98985
TO	-9.99041
などがある	-9.99087
冷	-9.99119
裁判	-9.99137
寿	-9.99146
を発表	-9.99213
至	-9.9922
で開催された	-9.99255
グリーン	-9.99273
を得る	-9.99313
運	-9.99367
邦	-9.99416
区別	-9.99471
将	-9.995
戦車	-9.99512
ものは	-9.99526
集合	-9.99556
アイドル	-9.99571
ソフトウェア	-9.99635
返	-9.99667
追加	-9.99716
ポート	-9.99749
推進	-9.99777
東海	-9.9979
71	-9.99827
分析	-9.99832
輝	-9.9986
の名称	-9.99871
諸国	-9.99884
行われ	-9.99902
購入	-9.99903
飯	-10.0003
治療	-10.0007
実現	-10.0009
後半	-10.001
泰	-10.0011
滝	-10.0013
植民地	-10.0014
世は	-10.0019
燃料	-10.0023
氷	-10.0025
鹿	-10.0027
最初に	-10.0035
テレビドラマ	-10.0036
ON	-10.004
合成	-10.0043
民主党	-10.0045
到着	-10.0047
論文	-10.005
銅	-10.0055
作られた	-10.0062
度の	-10.0062
は約	-10.0064
取引	-10.0067
中村	-10.007
位の	-10.007
仲間	-10.0072
認識	-10.0073
置	-10.0075
クレ	-10.0079
宣	-10.008
こともあり	-10.0084
、2012	-10.0085
回復	-10.0091
卵	-10.0095
。2010	-10.0103
キリスト教	-10.0103
規制	-10.0107
ザン	-10.0108
リック	-10.0113
カイ	-10.0118
コール	-10.012
市出身	-10.0121
試	-10.0121
演	-10.0122
鶴	-10.0124
ひろ	-10.0124
解決	-10.0125
行う	-10.0125
拡張	-10.0128
イオン	-10.0132
の存在	-10.0135
畑	-10.0137
と同時に	-10.014
とされた	-10.0141
議論	-10.0142
伊勢	-10.0144
化された	-10.0145
サル	-10.0146
ir	-10.0147
まだ	-10.0148
川の	-10.0148
用語	-10.015
700	-10.0151
ミル	-10.0155
雅	-10.016
崩壊	-10.0166
後期	-10.0166
ブルク	-10.0166
規模	-10.0168
演出	-10.0171
マリ	-10.0173
1941	-10.0175
学会	-10.0177
読	-10.018
千葉県	-10.0182
でき	-10.0185
腹	-10.0187
SA	-10.0189
乳	-10.0191
生き	-10.0193
RE	-10.02
1943	-10.02
てしまう	-10.0202
2019	-10.0203
ルール	-10.0205
の中に	-10.021
維持	-10.0215
しながら	-10.0216
放送された	-10.022
まり	-10.0227
改	-10.0227
1942	-10.0233
ポリ	-10.0234
他に	-10.0244
ガル	-10.0246
振	-10.0253
ルイ	-10.0254
仕事	-10.0256
ィ	-10.0257
注	-10.0259
検査	-10.0264
兵庫県	-10.0275
梅	-10.0276
ブロック	-10.0281
ちょう	-10.0282
現象	-10.0287
ずつ	-10.0288
ワールドカップ	-10.029
画家	-10.0293
ンズ	-10.0294
ヒット	-10.0295
ケイ	-10.0297
したこと	-10.0297
家庭	-10.0299
ナイ	-10.0302
富士	-10.0305
間に	-10.0305
#	-10.0306
のひとつ	-10.0307
乗り	-10.0308
健康	-10.0312
ことも	-10.0313
脚本	-10.0316
海岸	-10.0319
ものが	-10.032
つまり	-10.0324
彼らは	-10.0336
中止	-10.0337
ベルリン	-10.0338
注目	-10.0344
医師	-10.0348
の手	-10.0349
TA	-10.035
誕生	-10.0351
が可能	-10.0363
支持	-10.0367
仙台	-10.0368
認定	-10.037
裕	-10.0371
政党	-10.0371
lo	-10.0374
貿易	-10.0376
責任	-10.0377
各種	-10.0378
;	-10.0379
吉田	-10.038
翻訳	-10.0381
に参加	-10.0384
を除く	-10.0386
ナイト	-10.0389
の一人	-10.0389
艇	-10.0391
に入った	-10.0396
ベルク	-10.0402
なくなった	-10.0404
テレ	-10.0408
香港	-10.0409
ut	-10.041
SP	-10.0414
比較的	-10.0416
おお	-10.0416
児童	-10.0416
原因	-10.0421
福岡	-10.0423
んでいた	-10.0427
ウィン	-10.0432
ha	-10.0436
アイルランド	-10.0436
金属	-10.0441
発売された	-10.0442
ヒル	-10.0449
に関しては	-10.0449
アーティスト	-10.0455
アリ	-10.046
王者	-10.0465
皮	-10.0467
を使って	-10.0477
証	-10.0482
リュ	-10.0484
処分	-10.0485
闘	-10.049
の下	-10.0494
手法	-10.0495
移住	-10.0495
弥	-10.0497
1980	-10.0498
が必要	-10.0499
欠	-10.0502
学院	-10.0502
容	-10.0511
ごろ	-10.052
犯罪	-10.0521
=36	-10.0533
結成	-10.0542
創	-10.0545
うち	-10.0547
だろう	-10.055
地帯	-10.0556
厳	-10.0559
依頼	-10.0562
占領	-10.0563
とされ	-10.0565
に入る	-10.0572
時は	-10.0574
最終的に	-10.0575
録音	-10.0579
佐藤	-10.0582
遺跡	-10.0587
▁2000	-10.059
戦い	-10.059
複数	-10.0591
有効	-10.0593
行った	-10.0593
券	-10.0593
段階	-10.0594
サイズ	-10.0594
就任	-10.0596
式の	-10.06
専	-10.0602
の作品	-10.0603
スタジアム	-10.0605
なども	-10.0606
則	-10.0609
意見	-10.061
であるため	-10.0612
隠	-10.0614
適	-10.0614
小型	-10.0615
<	-10.0617
コス	-10.0617
第三	-10.0617
ay	-10.0619
テスト	-10.0622
スカ	-10.0623
に由来する	-10.063
開幕	-10.063
)3	-10.0634
覚	-10.0636
山口	-10.0637
アナウンサー	-10.064
場合もある	-10.0643
麻	-10.0645
160	-10.0645
ドア	-10.0645
不足	-10.0646
藤原	-10.065
電車	-10.0651
1946	-10.0652
コンサート	-10.0655
に加え	-10.0655
側に	-10.0656
表面	-10.0657
性の	-10.0659
荒	-10.066
戦略	-10.066
AN	-10.0661
ギター	-10.0661
既に	-10.0663
それぞれの	-10.0664
抵抗	-10.0667
落ち	-10.0667
なった	-10.0667
調整	-10.0668
ペル	-10.0668
保険	-10.0671
憲	-10.0676
id	-10.0678
底	-10.068
激	-10.068
することを	-10.0685
ケー	-10.0685
かれ	-10.069
ハル	-10.0694
分子	-10.0694
製の	-10.0699
神経	-10.0702
いち	-10.0706
シャン	-10.0709
ぶり	-10.0711
チュー	-10.0712
ie	-10.0716
▁in	-10.0718
120	-10.0718
オーバー	-10.0719
行われる	-10.0719
刊行	-10.0721
快	-10.0725
決	-10.0725
を始め	-10.0725
程	-10.0726
アラ	-10.0738
たちの	-10.0748
派遣	-10.0749
まれ	-10.0754
われ	-10.0761
力を	-10.0762
マッ	-10.0764
の息子	-10.0764
習	-10.077
環	-10.0775
ワシントン	-10.0779
1920	-10.0779
れた	-10.0781
にわたって	-10.0781
進行	-10.0784
糸	-10.0785
後も	-10.0785
ことになった	-10.0796
奇	-10.08
沖縄	-10.0804
600	-10.0805
並	-10.0805
MS	-10.0823
ゴン	-10.0823
ウル	-10.0825
母親	-10.0827
04	-10.0828
フィー	-10.0832
第二次世界大戦	-10.0834
衛	-10.0838
をする	-10.0839
をはじめ	-10.0841
理解	-10.0843
刑	-10.0844
きょう	-10.0851
、2014	-10.0851
スペシャル	-10.0852
のまま	-10.0858
、2013	-10.0865
1955	-10.0866
マク	-10.0866
ページ	-10.0866
呉	-10.0867
すぐに	-10.0868
勇	-10.0876
、2005	-10.0877
に基づく	-10.0878
移転	-10.0878
千葉	-10.0883
いく	-10.0884
それまで	-10.0889
嘉	-10.0889
当たり	-10.089
楽器	-10.0892
危機	-10.0893
度目の	-10.0899
判断	-10.0911
彼女は	-10.0912
安定	-10.0916
からも	-10.092
-0	-10.092
アク	-10.0922
襲	-10.0924
1956	-10.0925
移籍	-10.093
潜水艦	-10.0932
ter	-10.0934
本人	-10.0935
▁2003	-10.0937
逃げ	-10.0939
スは	-10.094
算	-10.0944
現地	-10.0945
世界選手権	-10.0948
動き	-10.0949
労働者	-10.0954
の間で	-10.0955
在籍	-10.0956
月より	-10.0958
スクール	-10.096
本名	-10.0962
裁判所	-10.0973
formula	-10.0974
区域	-10.0975
聴	-10.0976
夕	-10.0982
身長	-10.0984
食品	-10.0988
島の	-10.0995
通常の	-10.0997
に位置し	-10.1003
ゲスト	-10.1013
大阪府	-10.1014
破壊	-10.1019
害	-10.1019
ミス	-10.1021
スペース	-10.1024
願	-10.1024
衛星	-10.1025
許可	-10.1027
由来	-10.1027
有名	-10.1027
英国	-10.1027
街道	-10.1028
べき	-10.103
発射	-10.1031
カバー	-10.1036
作曲家	-10.1037
ine	-10.104
キュ	-10.104
広告	-10.1042
ウェル	-10.1049
1952	-10.1051
SC	-10.1055
めた	-10.106
沖	-10.1061
かな	-10.1064
浪	-10.1067
と考えられる	-10.1067
系列	-10.1068
らない	-10.1068
と対戦し	-10.1071
上昇	-10.1076
山田	-10.1079
票	-10.1082
職員	-10.1086
浮	-10.1091
学科	-10.1092
長く	-10.1093
益	-10.1094
形成	-10.1097
os	-10.1103
分け	-10.1104
問	-10.1104
迫	-10.1105
向上	-10.1125
西側	-10.1132
神奈川県	-10.1137
CO	-10.1141
長崎	-10.1149
執行	-10.1149
マリア	-10.1158
ER	-10.1158
死亡	-10.1159
se	-10.1162
それが	-10.1165
サラ	-10.1169
マイル	-10.1175
発表された	-10.1178
本の	-10.118
1954	-10.1184
億円	-10.1185
SE	-10.1188
幕府	-10.1191
02	-10.1193
限	-10.1194
昭	-10.1197
近代	-10.12
禁	-10.1207
スル	-10.1211
拠点	-10.1212
MO	-10.1222
FA	-10.1223
患者	-10.1225
1999	-10.1227
刊	-10.1232
指名	-10.1233
続いて	-10.1234
アム	-10.1235
ファイル	-10.1246
and	-10.1247
固	-10.1257
果	-10.1259
立て	-10.1261
仮	-10.1271
していく	-10.1274
ときに	-10.1276
されていたが	-10.128
同一	-10.1282
空軍	-10.1282
奏	-10.1284
ピン	-10.1286
実行	-10.1286
万ドル	-10.1286
中世	-10.1293
分割	-10.1293
オフ	-10.1294
é	-10.1296
旅客	-10.1299
巡	-10.1299
に至る	-10.1301
継承	-10.1302
▁18	-10.1303
の各	-10.1304
念	-10.1305
規則	-10.1306
人を	-10.131
US	-10.1311
膜	-10.1316
のない	-10.1318
ベー	-10.1319
co	-10.132
長期	-10.1321
上位	-10.1322
さまざまな	-10.1323
イメージ	-10.1328
-6	-10.1332
過去	-10.1332
昇	-10.1333
スコ	-10.1334
を用いた	-10.1339
向き	-10.1342
の際に	-10.1343
、2000	-10.1344
地点	-10.1353
競馬	-10.1357
初め	-10.1357
規格	-10.1366
トム	-10.1367
兵士	-10.1369
たちが	-10.1369
採	-10.1374
向けの	-10.1375
レーベル	-10.1376
当駅	-10.1377
とも呼ばれる	-10.138
59"	-10.1381
普及	-10.1381
信仰	-10.1394
阪神	-10.1396
完全に	-10.1397
チャンピオン	-10.14
選出	-10.14
長官	-10.1405
功	-10.1405
んでいる	-10.141
その後は	-10.1411
、2015	-10.1417
談	-10.1425
の世界	-10.1427
フェン	-10.1428
昇格	-10.1429
と呼ばれ	-10.143
年以降	-10.143
ほどの	-10.143
05	-10.1431
AC	-10.1432
ヴェル	-10.1433
ケル	-10.1435
参戦	-10.1436
リンク	-10.1445
背	-10.1448
地下鉄	-10.1449
するための	-10.1452
日間	-10.1456
ニン	-10.1457
に登場する	-10.146
nd	-10.1461
1953	-10.1469
えき	-10.1475
UN	-10.1475
を記録した	-10.1476
スイス	-10.1476
犯	-10.1476
執	-10.1477
山本	-10.1481
パワー	-10.1484
末期	-10.1484
ly	-10.1485
ていった	-10.1491
早く	-10.1494
照	-10.1501
に関して	-10.1502
輸入	-10.1502
国王	-10.1503
暦	-10.1504
ドリ	-10.1508
人民	-10.1511
尊	-10.1514
兵器	-10.1517
j	-10.1518
ング	-10.1519
移	-10.1524
脇	-10.1525
年齢	-10.1532
が行われる	-10.1533
期の	-10.1536
継	-10.154
対戦	-10.1542
エジプト	-10.1544
することが	-10.1549
知識	-10.155
予	-10.155
KO	-10.155
タレント	-10.1552
静岡県	-10.1553
ジャック	-10.1553
挙	-10.1555
ハンガリー	-10.1558
わずか	-10.1559
1988	-10.1559
左右	-10.1559
1970	-10.156
に就任	-10.1561
トレ	-10.1564
特定の	-10.1564
関係者	-10.1567
ヤン	-10.1567
このとき	-10.1568
CA	-10.1569
大規模な	-10.1571
53"	-10.1571
傾向	-10.1581
チャンネル	-10.1582
空気	-10.1582
低下	-10.1587
執筆	-10.16
替え	-10.16
受賞	-10.1603
1957	-10.1603
文庫	-10.1605
解放	-10.1606
フラ	-10.1614
主要	-10.1616
つき	-10.1617
美術館	-10.1617
作り	-10.1623
目の	-10.1624
5%	-10.1624
公共	-10.1626
雑	-10.1626
抗	-10.163
惑星	-10.163
下げ	-10.1631
こそ	-10.1631
58"	-10.1633
軍人	-10.1637
時点で	-10.1638
財政	-10.1639
よい	-10.1642
チームの	-10.1642
ショ	-10.1644
メジャー	-10.1644
ce	-10.1649
170	-10.1654
河川	-10.1657
ニング	-10.1658
ヶ	-10.1658
の場合は	-10.166
プロレス	-10.1665
一度	-10.1665
されること	-10.1673
装甲	-10.1674
事務	-10.1679
についての	-10.1679
1939	-10.1682
機の	-10.1685
るようになった	-10.1687
逆に	-10.1691
仕	-10.1696
事態	-10.1699
賢	-10.17
毒	-10.1701
虫	-10.1705
中部	-10.1706
前後	-10.1708
ソング	-10.1709
ホル	-10.1709
先発	-10.1714
福岡県	-10.1714
寛	-10.1714
リュー	-10.1715
息子	-10.1717
マシン	-10.1719
ロケット	-10.1719
社の	-10.1719
沈	-10.172
も多い	-10.1728
コミック	-10.1732
名誉	-10.174
ヴァル	-10.1741
荘	-10.1742
吹	-10.1743
哲学	-10.1743
持つ	-10.1744
創設	-10.1745
アクション	-10.1745
教師	-10.1747
all	-10.1751
1951	-10.1751
フィン	-10.1752
られていた	-10.1755
走行	-10.176
ミサイル	-10.1761
ガイ	-10.1762
のみで	-10.1762
〈	-10.1763
IT	-10.1765
〉	-10.1765
グロ	-10.1766
箱	-10.1766
粉	-10.1769
ポジションは	-10.1777
雷	-10.1778
主張	-10.1779
。2009	-10.1784
に移籍	-10.1793
ac	-10.1799
しても	-10.1799
苦	-10.1803
律	-10.1804
種の	-10.182
03	-10.1821
庫	-10.1822
成績	-10.1823
回り	-10.1823
青年	-10.1827
卒	-10.1832
長野県	-10.1838
サム	-10.1839
るため	-10.184
財	-10.1841
ポルトガル	-10.1841
画面	-10.1842
集落	-10.1853
特定	-10.1854
-4	-10.186
ブロ	-10.1863
芸	-10.1866
正式に	-10.1868
検討	-10.1871
再建	-10.1871
侵攻	-10.1873
おか	-10.1873
範囲	-10.1874
松本	-10.1876
陳	-10.1878
業界	-10.1887
ジョー	-10.1895
を引き	-10.1896
古い	-10.1899
人々	-10.19
なければ	-10.19
ダウン	-10.1902
250	-10.1906
を表す	-10.1908
復	-10.1908
にもかかわらず	-10.1908
始めた	-10.191
であること	-10.1914
一族	-10.1916
稲	-10.1917
続	-10.1921
ニック	-10.1926
分布	-10.1928
解釈	-10.1928
人に	-10.1933
高橋	-10.1933
斉	-10.1933
比較	-10.1934
撤退	-10.1934
か月	-10.1934
大和	-10.1938
駅間	-10.194
あい	-10.1942
貫	-10.1948
AR	-10.1948
側面	-10.1951
機会	-10.1951
全米	-10.1951
せる	-10.1952
決勝	-10.1953
国境	-10.1957
死去した	-10.1961
縦	-10.1963
栽培	-10.1963
場合には	-10.1967
奉	-10.1968
弁護士	-10.1969
現場	-10.1969
。2008	-10.197
髪	-10.1975
☆	-10.1977
得	-10.1979
沿岸	-10.1984
賞を受賞	-10.1987
自らの	-10.1989
展	-10.1993
灯	-10.1993
世紀の	-10.1994
鳴	-10.1996
06	-10.1999
育成	-10.2
ロサンゼルス	-10.2001
、2016	-10.2002
ビジネス	-10.2002
個体	-10.2006
協定	-10.2007
一番	-10.2011
紅	-10.2012
発足	-10.2014
価値	-10.2017
姉	-10.2021
背景	-10.2021
現在も	-10.2026
月号	-10.2031
ということ	-10.2031
すべき	-10.2032
、2004	-10.2036
09	-10.2036
ユダヤ人	-10.2036
以前の	-10.2042
地域の	-10.2045
に変更	-10.2046
衝突	-10.2046
滅	-10.2049
ものであり	-10.205
▁St	-10.2059
臨時	-10.206
故	-10.2061
準備	-10.2067
川崎	-10.2067
▁U	-10.2068
かり	-10.2072
ロバート	-10.2072
を得て	-10.2073
箇所	-10.2076
ディング	-10.2081
作成	-10.2083
EN	-10.2086
鏡	-10.2086
下の	-10.2094
痛	-10.2104
▁s	-10.2106
を獲得	-10.2112
no	-10.2114
芳	-10.2118
再生	-10.2119
と述べている	-10.2121
作用	-10.2128
取締役	-10.2129
ell	-10.213
を超える	-10.2131
閉	-10.2137
争い	-10.2138
庭	-10.2139
適用	-10.215
1987	-10.2157
露	-10.2157
▁2002	-10.2158
]	-10.2159
アクセス	-10.2162
混	-10.2163
判決	-10.2164
通過	-10.2166
丁	-10.2166
清水	-10.2168
あたり	-10.2171
交差点	-10.2171
FM	-10.2175
させて	-10.2175
注意	-10.2177
臨	-10.2178
厚	-10.2179
取得	-10.2181
1937	-10.2181
エピソード	-10.2182
それら	-10.2186
庄	-10.2187
たため	-10.2193
次第に	-10.2193
戦では	-10.2195
動作	-10.2196
冊	-10.2197
▁ア	-10.2201
捜査	-10.2207
彩	-10.2208
。2007	-10.221
構想	-10.2215
勤務	-10.2216
玄	-10.2218
仏教	-10.2219
トルコ	-10.2223
写	-10.2225
けい	-10.2226
低い	-10.2232
公開された	-10.2233
伊藤	-10.2239
to	-10.2248
ビット	-10.2249
もっとも	-10.225
man	-10.2251
掛け	-10.2264
na	-10.2265
に就任した	-10.2265
de	-10.2267
駆逐艦	-10.2269
要請	-10.2273
AL	-10.2277
戦隊	-10.2281
。2011	-10.2282
世代	-10.2285
深夜	-10.2287
話題	-10.2294
個の	-10.2294
ーション	-10.2298
さい	-10.2298
るが	-10.2304
多い	-10.2304
ma	-10.2307
贈	-10.2307
状の	-10.2317
議長	-10.2318
誠	-10.2319
栗	-10.2322
姉妹	-10.2325
施行	-10.2328
撃	-10.2333
面積	-10.2336
レル	-10.2339
暗	-10.2341
やすい	-10.2343
済	-10.2349
およそ	-10.2352
審	-10.2353
因	-10.2356
反乱	-10.2356
止め	-10.2357
江戸時代	-10.2358
をしている	-10.236
現実	-10.2362
打率	-10.2364
聞	-10.2365
年現在	-10.2372
1986	-10.2375
▁本	-10.2381
須	-10.2382
峰	-10.2383
標高	-10.2385
開発された	-10.2391
メール	-10.2393
登板	-10.2395
はほとんど	-10.2396
)12	-10.2402
牧	-10.2403
と思われる	-10.2411
op	-10.2414
ころ	-10.2414
カス	-10.2415
1985	-10.2415
全く	-10.2418
フー	-10.2418
深い	-10.2419
すでに	-10.2422
彼女の	-10.2423
ヌー	-10.2426
使用されている	-10.2426
の一つである	-10.2428
浩	-10.2434
武装	-10.2435
駒	-10.2437
1930	-10.2442
する事	-10.2443
証明	-10.2443
引き続き	-10.2447
自身が	-10.2448
1936	-10.2451
ドラフト	-10.2451
当選	-10.2455
ネル	-10.2455
1998	-10.2457
信号	-10.2457
獣	-10.246
工学	-10.2465
部に	-10.2466
整	-10.2469
成立	-10.2469
遅れ	-10.247
同時	-10.247
一般的な	-10.2473
コロ	-10.2474
棒	-10.2477
リリースされた	-10.2481
爆発	-10.2486
オリ	-10.2487
以前は	-10.2489
1938	-10.2491
ブレーキ	-10.2492
colspan	-10.2492
待	-10.2493
オペラ	-10.2494
モスクワ	-10.2496
敏	-10.25
監督の	-10.2502
年からは	-10.2503
指示	-10.2505
あと	-10.2506
子は	-10.2507
合意	-10.2507
性質	-10.2508
かつては	-10.2514
息	-10.2522
鋼	-10.2526
ユーザー	-10.2527
と同	-10.2542
▁2001	-10.2545
づ	-10.2548
RA	-10.2548
酸化	-10.2549
肩	-10.255
業者	-10.255
開催された	-10.2553
テロ	-10.2558
不明	-10.2562
設立された	-10.2563
類似	-10.2563
1950	-10.2563
ヴィン	-10.2564
特殊	-10.2569
om	-10.2573
札幌	-10.2575
将来	-10.2575
▁("	-10.2582
08	-10.2583
狭	-10.2583
するもの	-10.2587
▁〜	-10.2587
承認	-10.259
様式	-10.2598
ゼン	-10.2599
駅舎	-10.2605
労	-10.2607
カット	-10.2607
プロダクション	-10.2608
im	-10.261
イヤー	-10.2612
はなく	-10.2615
棟	-10.2616
らい	-10.2617
徐々に	-10.2617
市にある	-10.2617
僧	-10.2618
ート	-10.262
ブラン	-10.2622
ことにより	-10.2623
ード	-10.2627
フジテレビ	-10.2632
彼ら	-10.2634
従来	-10.2634
急行	-10.2636
発言	-10.2642
峠	-10.2651
如	-10.2653
ヘンリー	-10.2655
次元	-10.2659
金融	-10.266
歌詞	-10.266
ベルト	-10.2664
形状	-10.2669
キャリア	-10.2671
リウス	-10.2676
陰	-10.2682
古典	-10.2682
ながらも	-10.2685
大学院	-10.2689
も多く	-10.2692
1945	-10.2694
1963	-10.2695
飛び	-10.2697
演劇	-10.2697
投入	-10.2702
最多	-10.2702
できなかった	-10.2704
AM	-10.2705
妹	-10.271
を作る	-10.2711
バーン	-10.2712
胸	-10.272
に参加した	-10.2721
晴	-10.2722
統計	-10.2725
仙	-10.2725
爆	-10.2727
ill	-10.2727
以降の	-10.2728
コンビ	-10.2728
モル	-10.2732
強化	-10.2733
就	-10.2734
入団	-10.2734
兵衛	-10.2734
vi	-10.2748
メント	-10.2748
モンゴル	-10.2751
両者	-10.2753
、2017	-10.2758
相当	-10.2764
創立	-10.2764
帳	-10.2766
リーダー	-10.2767
シート	-10.2769
特急	-10.2769
を通して	-10.277
使用する	-10.277
有名な	-10.2771
劇団	-10.2772
セー	-10.2773
らの	-10.2773
ッタ	-10.2774
性格	-10.2774
輸出	-10.2774
ろう	-10.2779
AS	-10.2781
。2006	-10.2785
前作	-10.2786
駅前	-10.2792
ne	-10.2795
重量	-10.2796
虎	-10.2796
。2012	-10.2799
理事	-10.28
同様に	-10.2802
ard	-10.2803
ギリシャ	-10.2806
辞	-10.2807
父の	-10.2809
軍団	-10.2809
1984	-10.2811
父親	-10.2811
述	-10.2812
居住	-10.2813
句	-10.2822
残り	-10.2824
祝	-10.283
録	-10.2835
1962	-10.2836
無線	-10.284
の下で	-10.2842
に入学	-10.2843
合わせ	-10.2846
au	-10.2847
協	-10.2861
新人	-10.2863
活動を	-10.2864
グレ	-10.2872
首都	-10.2873
離脱	-10.2878
投資	-10.2879
インディアン	-10.2885
参照	-10.2886
=40	-10.2888
という意味	-10.2889
遠征	-10.2894
上陸	-10.2894
小林	-10.2896
嫌	-10.29
転換	-10.2906
事業者	-10.291
入学	-10.2913
チャン	-10.2916
リアン	-10.2917
刺	-10.2918
ための	-10.2918
1996	-10.2922
と呼ばれた	-10.2927
の建設	-10.2928
、1990	-10.2933
RI	-10.2935
ものと	-10.2938
IS	-10.2939
本作の	-10.2942
ive	-10.2943
主力	-10.2945
えた	-10.2947
変換	-10.2954
確保	-10.2955
権利	-10.2959
彼が	-10.2961
命名	-10.2962
かず	-10.2969
大学で	-10.2971
シス	-10.2976
戦線	-10.298
ものを	-10.2982
混乱	-10.2983
中学	-10.2988
性を	-10.299
と同じく	-10.299
墓	-10.299
を求める	-10.2995
DE	-10.2999
営業所	-10.3
に出	-10.3001
1997	-10.3006
株	-10.3011
アカデミー	-10.302
耳	-10.3027
中国の	-10.3027
ハード	-10.3027
招	-10.3028
東側	-10.3029
外国	-10.3029
を開催	-10.3031
130	-10.3034
フィルム	-10.3034
未来	-10.3039
新宿	-10.3041
講師	-10.3044
の使用	-10.3048
文献	-10.3048
ッター	-10.3049
を下	-10.305
ロング	-10.3051
友人	-10.3051
豪	-10.3056
提出	-10.3058
帰国	-10.3059
偽	-10.3059
事情	-10.3066
として活動	-10.3066
数が	-10.3066
。2013	-10.3067
そのような	-10.3067
ここ	-10.3072
ティン	-10.3074
負傷	-10.308
藩主	-10.3081
場面	-10.3081
刑事	-10.3084
der	-10.3085
植	-10.3088
他にも	-10.3089
形の	-10.3089
07	-10.3093
幼	-10.3096
なん	-10.3105
ホワイト	-10.3117
かけ	-10.3121
フェル	-10.3122
ゲー	-10.3125
しかしながら	-10.3125
ターン	-10.3127
することになった	-10.313
芝	-10.313
Windows	-10.3132
妙	-10.3134
双	-10.3135
ウクライナ	-10.3139
義務	-10.314
地名	-10.3141
利益	-10.3143
を描いた	-10.3144
ルド	-10.3144
伴	-10.3147
)10	-10.3148
外国人	-10.3149
新幹線	-10.3153
使用される	-10.3157
ウッド	-10.3161
硬	-10.3166
の高い	-10.3167
卒業後	-10.3168
加藤	-10.3169
すぐ	-10.317
売り	-10.317
を始めた	-10.3171
地に	-10.3172
ワイン	-10.3179
山脈	-10.3183
つか	-10.3185
イスラエル	-10.3186
レオ	-10.3187
を発表した	-10.3187
ラブ	-10.3188
人と	-10.3189
そこに	-10.3194
祖父	-10.3206
存在する	-10.3211
建造	-10.3214
希望	-10.3218
唯一	-10.3219
作品の	-10.3219
書籍	-10.3219
色の	-10.3224
毎週	-10.3224
月場所	-10.3226
人で	-10.3227
に終わった	-10.3237
指導者	-10.3244
歴代	-10.3244
集中	-10.3246
mi	-10.3246
付属	-10.3251
ツァ	-10.3253
ヘン	-10.3254
似	-10.3262
広場	-10.3272
防御率	-10.3274
1995	-10.3276
NA	-10.3279
をした	-10.328
桂	-10.3281
1933	-10.3284
天正	-10.3284
体験	-10.3286
修正	-10.3286
であれば	-10.3291
浅	-10.3293
身体	-10.3295
主催	-10.3297
的には	-10.33
予想	-10.3303
▁Re	-10.3305
同様	-10.3306
政治家	-10.3309
試み	-10.3315
護衛	-10.3322
ヴィー	-10.3324
岐阜県	-10.3327
実際には	-10.3328
陵	-10.3333
ant	-10.3333
1972	-10.3334
予算	-10.3335
1983	-10.3343
1961	-10.3343
が高い	-10.3345
1932	-10.3348
創刊	-10.3349
戦闘機	-10.3351
負け	-10.3353
。2014	-10.3357
旨	-10.3361
使われている	-10.3362
当て	-10.3365
再開	-10.3366
シュー	-10.3367
軒	-10.3372
疑	-10.3373
地元の	-10.3376
月末	-10.338
札	-10.3385
の上	-10.3386
これらは	-10.3388
担	-10.3393
ーナ	-10.3394
アメリカン	-10.3395
SF	-10.3395
ate	-10.3396
1982	-10.3397
にまで	-10.3404
長さ	-10.341
敷地	-10.3412
守備	-10.3417
解説	-10.3419
体重	-10.3423
1934	-10.3423
恩	-10.3424
なければならない	-10.3426
外交	-10.3428
想	-10.3429
研究者	-10.3433
MI	-10.3435
ディスク	-10.3435
、2018	-10.3439
me	-10.3445
立場	-10.3452
公表	-10.3452
活	-10.3454
微	-10.3455
ヘッド	-10.3456
プラン	-10.3458
判定	-10.346
1935	-10.346
ph	-10.3461
料金	-10.3463
航	-10.3466
丹	-10.3471
寝	-10.3473
項目	-10.3475
そのもの	-10.3477
韓	-10.3483
EC	-10.3487
新潟県	-10.3493
1960	-10.3493
儀	-10.3493
1947	-10.3498
続けた	-10.3501
裂	-10.3502
シリーズの	-10.3503
ようになり	-10.3504
政府は	-10.3507
マッチ	-10.351
洞	-10.3513
io	-10.3515
ex	-10.3515
高さ	-10.3516
エリ	-10.3516
ネイ	-10.3519
液	-10.3525
守護	-10.3526
の問題	-10.3529
包	-10.3529
プロデュース	-10.353
負	-10.3532
加盟	-10.3533
岳	-10.3533
を果たす	-10.3533
模様	-10.3533
以前	-10.3536
相互	-10.3537
ション	-10.3537
それに	-10.3537
両親	-10.354
GA	-10.354
記憶	-10.3543
ついた	-10.3544
、2003	-10.3544
できず	-10.3545
権力	-10.3553
を与え	-10.3554
ag	-10.3554
審査	-10.3562
単行本	-10.3564
緒	-10.3571
祐	-10.3572
の関係	-10.3572
消	-10.3572
解体	-10.3575
を行っていた	-10.3575
穂	-10.3576
費用	-10.3577
描写	-10.3577
されない	-10.3578
のアルバム	-10.358
インターチェンジ	-10.3583
生命	-10.3585
材料	-10.3586
スの	-10.3586
主体	-10.3586
感じ	-10.3588
サポート	-10.3589
ゲイ	-10.3592
を持っている	-10.3594
頃から	-10.3602
スパイ	-10.3603
トーク	-10.3605
に基づいて	-10.3606
描	-10.3607
敗北	-10.3609
著	-10.3611
流行	-10.3611
もともと	-10.3612
揚	-10.3613
ルト	-10.3616
原子	-10.3617
手紙	-10.3618
強く	-10.3619
動画	-10.3622
チームは	-10.3626
バーグ	-10.3626
画像	-10.3629
投げ	-10.3631
大字	-10.3632
測定	-10.3635
ステークス	-10.3637
パート	-10.3639
ストリート	-10.3639
はじめ	-10.364
交代	-10.364
ラク	-10.3644
ズの	-10.3646
ることができる	-10.3651
始	-10.3651
高度	-10.3657
外部	-10.3657
言い	-10.3658
終了した	-10.3661
漁	-10.3663
狂	-10.3663
伯爵	-10.3666
アニメーション	-10.3667
使われる	-10.3668
不可能	-10.3668
に生まれる	-10.3669
登場する	-10.367
関心	-10.3674
ig	-10.3676
。2005	-10.3676
のことである	-10.3677
警	-10.3677
岡山	-10.3679
ラグビー	-10.3679
スティ	-10.3685
恐れ	-10.3685
をもつ	-10.3687
OR	-10.369
半分	-10.3692
北京	-10.3696
塁	-10.3698
その結果	-10.37
スコットランド	-10.3704
巣	-10.3707
学習	-10.3713
を与える	-10.3713
サブ	-10.3716
奴隷	-10.3719
年代の	-10.372
パイ	-10.3721
▁c	-10.3722
つけ	-10.3728
パイロット	-10.3728
ta	-10.3731
やや	-10.3732
閉鎖	-10.3732
ても	-10.3732
秋田	-10.3732
キャラ	-10.3732
熊本	-10.3732
司令官	-10.3733
テー	-10.3735
が特徴	-10.3735
°	-10.3739
東洋	-10.3742
練	-10.3743
フィリピン	-10.3745
実際の	-10.3745
で最も	-10.3749
ver	-10.3751
が行われている	-10.3757
競馬場	-10.3757
ビッグ	-10.3758
危険	-10.376
略称	-10.3761
秘密	-10.3764
の意味	-10.3765
ヒト	-10.3768
三菱	-10.3771
カリフォルニア州	-10.3771
委員長	-10.3779
リード	-10.3782
夫人	-10.3782
市街地	-10.3783
1928	-10.3785
を中心とした	-10.3796
リズム	-10.3797
扉	-10.3797
ベトナム	-10.3797
1931	-10.38
AV	-10.3802
ウォー	-10.3804
ヌス	-10.3807
温度	-10.3808
巨	-10.381
カトリック	-10.381
石油	-10.3811
年生	-10.3811
。2015	-10.3811
効率	-10.3813
小惑星	-10.3815
状態で	-10.382
否定	-10.3826
定期	-10.3831
-5	-10.3835
笠	-10.3836
に当たる	-10.3836
駅から	-10.3839
1979	-10.3839
梁	-10.384
抜け	-10.3841
四国	-10.3849
歩兵	-10.3851
覆	-10.3855
ペイ	-10.3856
合わせて	-10.3859
1975	-10.3866
1929	-10.3866
が増え	-10.3868
この頃	-10.387
1994	-10.387
我	-10.3871
消費	-10.3871
なっている	-10.3876
縮	-10.3876
機種	-10.3877
1959	-10.3877
を使用する	-10.3881
日本軍	-10.3881
に相当する	-10.3882
吸	-10.3884
▁1990	-10.3884
完了	-10.3885
されなかった	-10.3886
▁一方	-10.3886
斎	-10.3888
1992	-10.3891
に応じて	-10.3891
1948	-10.3897
数字	-10.3897
に入って	-10.3897
の際	-10.3897
上海	-10.3897
彼らの	-10.39
日本で	-10.3904
短い	-10.391
リオン	-10.3912
池田	-10.3914
種類の	-10.3917
に伴う	-10.3921
込んで	-10.3922
ab	-10.3923
ストラ	-10.3926
大きい	-10.393
生涯	-10.3933
ガラス	-10.3933
ドライバー	-10.3934
姿勢	-10.3934
架	-10.3935
が見られる	-10.3938
ジム	-10.3938
偏	-10.3939
免許	-10.394
まち	-10.3941
資源	-10.3945
郵便局	-10.3945
LE	-10.3945
沿い	-10.3949
フラン	-10.3949
1958	-10.395
ミュ	-10.3955
チャールズ	-10.3955
、1980	-10.3958
モリ	-10.3958
よし	-10.3963
est	-10.3967
%	-10.3974
男女	-10.3976
薄	-10.3977
福島	-10.3978
収入	-10.3978
アート	-10.3987
進化	-10.3989
を目指す	-10.3989
資	-10.3989
ムー	-10.399
)11	-10.3992
日発売	-10.3995
1981	-10.3995
態	-10.3997
モーター	-10.3998
メー	-10.4
探	-10.4001
東西	-10.4009
先に	-10.4009
▁f	-10.4012
激しい	-10.4013
のお	-10.4014
BC	-10.4017
然	-10.4017
ぞ	-10.4017
同様の	-10.402
小さい	-10.4023
したのは	-10.4025
離れた	-10.4025
大幅に	-10.4028
措置	-10.403
払	-10.4031
らは	-10.4031
マイケル	-10.4032
先行	-10.4034
トゥー	-10.4039
単に	-10.4046
殺害	-10.4052
版の	-10.4054
渡辺	-10.4055
之助	-10.4057
ヤー	-10.4057
ナル	-10.4058
ノル	-10.406
秘	-10.4062
させること	-10.4063
再度	-10.4064
ジェームズ	-10.4067
1993	-10.4069
ge	-10.4077
DS	-10.4085
ティス	-10.4092
甘	-10.4092
1969	-10.4093
ジャンル	-10.4093
いたが	-10.4094
るなど	-10.4097
してしまう	-10.4098
シカゴ	-10.4103
下り	-10.4104
洗	-10.4105
案内	-10.4105
を用いる	-10.4106
場合がある	-10.4106
BE	-10.4108
絵画	-10.4108
したという	-10.411
井上	-10.4113
公認	-10.4113
ニコ	-10.4115
改修	-10.4116
暴	-10.4118
は主に	-10.4119
訴え	-10.4121
プロ野球	-10.4121
BA	-10.4125
っていない	-10.413
するまで	-10.4132
即	-10.414
勤	-10.4141
数学	-10.4141
ギー	-10.4142
コピー	-10.4145
わず	-10.4146
公立	-10.4146
たとえば	-10.4147
軍が	-10.4151
近い	-10.4152
。2016	-10.4152
ビア	-10.4154
でもあった	-10.4158
広島県	-10.4159
対抗	-10.4161
単独	-10.4164
1973	-10.4168
上げた	-10.4171
季	-10.4176
駐	-10.4178
印刷	-10.4183
マスター	-10.4186
押	-10.4189
シーズンは	-10.4193
舎	-10.4193
東日本	-10.4193
の曲	-10.4195
宏	-10.4198
復興	-10.42
で初めて	-10.42
しばらく	-10.4203
遺伝子	-10.4208
1924	-10.421
をリリース	-10.4211
していった	-10.4211
ステーション	-10.4212
柔道	-10.4213
アド	-10.4214
随	-10.4217
子が	-10.4218
代わりに	-10.4219
全長	-10.422
新潟	-10.4223
かに	-10.4223
様子	-10.4223
ファッション	-10.4224
1978	-10.423
少将	-10.4231
との間に	-10.4232
記者	-10.4233
生成	-10.4233
側は	-10.4235
朱	-10.4236
ーク	-10.4236
及	-10.4238
廃止された	-10.4239
訴訟	-10.4243
取材	-10.4245
の一覧	-10.4247
の地位	-10.4253
ラウ	-10.4254
自体	-10.4259
1949	-10.426
クラシック	-10.4262
全員	-10.4262
をしていた	-10.4263
インタビュー	-10.4267
操縦	-10.4269
奪	-10.4271
でない	-10.4271
てい	-10.4273
築	-10.4275
リエ	-10.4277
直線	-10.4277
ンス	-10.4283
に向けて	-10.4283
桃	-10.4283
▁to	-10.4292
イラスト	-10.4296
分岐	-10.4297
押し	-10.4297
推薦	-10.4297
1968	-10.4298
付けた	-10.4298
南側	-10.4298
ベルギー	-10.4299
負担	-10.4304
140	-10.4307
流通	-10.431
コスト	-10.4312
魔法	-10.4312
に貢献した	-10.4315
1974	-10.4315
領土	-10.4315
気候	-10.4315
BO	-10.4317
175	-10.4317
1991	-10.4317
資本	-10.432
議席	-10.4322
ジャズ	-10.4323
であったため	-10.4323
ES	-10.4328
那	-10.4328
ブック	-10.4332
経緯	-10.4332
バッハ	-10.4336
体の	-10.4339
予備	-10.434
スコット	-10.434
に転	-10.4341
日現在	-10.4341
ウィーン	-10.4342
らなかった	-10.4347
フランス語	-10.435
デモ	-10.4353
繋	-10.4354
束	-10.4355
があるが	-10.4357
を持った	-10.4358
の一種	-10.4358
出発	-10.4359
com	-10.436
sh	-10.4365
希	-10.4366
少ない	-10.4367
われた	-10.4369
切れ	-10.4371
防止	-10.4371
編曲	-10.4374
ME	-10.4378
中間	-10.4379
1971	-10.4379
使い	-10.4379
▁a	-10.4379
ミュージシャン	-10.438
▁1999	-10.4383
差し	-10.4387
do	-10.4391
音声	-10.4392
少し	-10.4394
しているが	-10.4394
先端	-10.4395
も存在する	-10.4397
書かれた	-10.4399
年頃	-10.4401
蘭	-10.4401
これまで	-10.4402
中山	-10.4403
叙	-10.4406
アメリカ軍	-10.4406
ネタ	-10.4407
使われ	-10.4408
ならば	-10.4412
組み	-10.4414
son	-10.4415
と同様	-10.4416
per	-10.4416
の他	-10.4418
を取得	-10.4418
通じ	-10.4418
、2002	-10.4419
車の	-10.442
過ごし	-10.4426
ナショナル	-10.443
援助	-10.443
しき	-10.4432
打撃	-10.4438
暗殺	-10.4438
1976	-10.4441
南西	-10.4442
権を	-10.4444
かく	-10.4447
張り	-10.4451
滑	-10.4458
グラン	-10.4458
加工	-10.446
つつ	-10.4461
カム	-10.4462
イラン	-10.4462
帰還	-10.4468
1927	-10.4472
言及	-10.4473
制定	-10.4475
になっていた	-10.4475
ers	-10.4477
づけ	-10.4478
程度の	-10.4478
観客	-10.448
人生	-10.4482
110	-10.4483
海上	-10.4485
合う	-10.4487
5000	-10.4487
はず	-10.4488
ライフ	-10.4496
嶋	-10.4499
合同	-10.4499
刻	-10.4503
鑑	-10.4505
咲	-10.4507
降伏	-10.4508
として知られる	-10.4511
ロボット	-10.4512
ジャンプ	-10.4513
テレビアニメ	-10.4516
上野	-10.4519
所有	-10.4521
言う	-10.4522
ho	-10.4526
専門学校	-10.4531
手術	-10.4533
茨城県	-10.4536
教え	-10.4538
ウン	-10.454
番目の	-10.454
が出	-10.4543
翌日	-10.4544
相続	-10.4547
政府の	-10.4548
デンマーク	-10.4548
PA	-10.4552
病気	-10.4553
眠	-10.4556
のもと	-10.4557
ばかり	-10.4562
可能性がある	-10.4563
ッサ	-10.4564
全体の	-10.4565
きっかけ	-10.4565
西武	-10.4567
ヘイ	-10.457
大手	-10.4571
しようと	-10.4574
168	-10.4577
順位	-10.4578
原則	-10.4578
勲	-10.4578
若い	-10.4585
二人	-10.4588
ごく	-10.4592
日本代表	-10.4594
明らかに	-10.4599
郡の	-10.46
ロウ	-10.4601
人である	-10.4602
ロイ	-10.4602
ゆき	-10.4603
誘導	-10.4607
1989	-10.461
1925	-10.4612
悪化	-10.4615
といわれる	-10.4616
父は	-10.4617
司法	-10.4619
マラ	-10.4624
III	-10.4624
開通	-10.4629
)7	-10.463
邸	-10.4633
怪	-10.4637
和田	-10.4638
今日	-10.464
部品	-10.4641
モール	-10.4643
継ぎ	-10.4646
承	-10.4655
IP	-10.4656
リーグの	-10.4657
ヴィル	-10.4661
:"	-10.4663
ロール	-10.4663
葬	-10.4664
蓮	-10.4665
ヴァイ	-10.467
無料	-10.4671
を設立	-10.4672
時点	-10.4674
籍	-10.4679
証拠	-10.4679
1923	-10.468
自転車	-10.4684
に際して	-10.4684
ムス	-10.4684
テニス	-10.4684
隣	-10.4687
大阪市	-10.4688
移民	-10.4689
猫	-10.4689
洲	-10.4689
沙	-10.4691
顧問	-10.4697
来日	-10.47
大賞	-10.4703
育て	-10.4704
てしまった	-10.4708
を起こし	-10.4711
歴	-10.4714
修道院	-10.4715
収容	-10.4715
前述の	-10.4717
寄せ	-10.4718
皆	-10.4718
優先	-10.4721
功績	-10.4722
マリー	-10.4724
ソル	-10.4725
故障	-10.4725
日付	-10.4726
需要	-10.4726
盗	-10.4727
奈良	-10.4736
作者	-10.4737
ヒュー	-10.4738
曖昧さ回避	-10.474
を始める	-10.474
福島県	-10.474
枚目のシングル	-10.4741
こともあった	-10.4741
かつての	-10.4743
スー	-10.4745
コミュニティ	-10.4752
イス	-10.4755
打点	-10.4756
線路	-10.4756
▁p	-10.4759
するも	-10.4759
手段	-10.4761
伸	-10.4761
現役	-10.4763
高く	-10.4764
攻	-10.4767
職業	-10.4767
立候補	-10.4768
モノ	-10.4771
されたもの	-10.4773
振興	-10.4777
ける	-10.4779
数の	-10.4783
通行	-10.4784
アイテム	-10.4786
されると	-10.4787
レコーディング	-10.4787
侯	-10.4792
逮捕	-10.4793
幹部	-10.4796
退団	-10.4801
作品を	-10.4801
競	-10.4802
線が	-10.4802
上映	-10.4803
宋	-10.4803
コア	-10.4803
北朝鮮	-10.4803
届	-10.4804
東映	-10.481
例として	-10.4812
いう	-10.4814
豆	-10.4818
ストン	-10.4823
郊外	-10.4825
cc	-10.4825
世界の	-10.4827
のに対し	-10.4829
新規	-10.483
が異なる	-10.483
石川	-10.4836
コンセプト	-10.4841
ッパー	-10.4842
分裂	-10.4846
を設け	-10.4849
ジェット	-10.4849
回の	-10.485
1918	-10.4853
かなり	-10.4854
寒	-10.4858
卿	-10.4859
ゾン	-10.4859
ローズ	-10.4864
屋根	-10.4865
事を	-10.4869
。2017	-10.4869
弦	-10.4872
第一次世界大戦	-10.4878
深く	-10.4878
体系	-10.4879
災害	-10.4881
の多くは	-10.4881
周年	-10.4882
者に	-10.4887
エレ	-10.4889
を担当した	-10.4893
選抜	-10.4898
ポスト	-10.4898
柏	-10.4902
の新	-10.4909
西日本	-10.4911
に取り	-10.4912
供	-10.4915
出された	-10.4916
著作	-10.4918
の特徴	-10.4919
オート	-10.4921
の女性	-10.4922
詳細は	-10.4922
曹	-10.4924
DA	-10.4925
決勝で	-10.4926
であろう	-10.4928
挑戦	-10.493
一つ	-10.4931
GO	-10.4933
フランク	-10.4936
ッカ	-10.4947
▁The	-10.4953
政治的	-10.4953
リチャード	-10.4953
台車	-10.496
チャート	-10.496
共産党	-10.4961
ry	-10.4964
週刊	-10.4965
1964	-10.4967
役割	-10.4968
記号	-10.4968
症状	-10.4968
ap	-10.4969
双方	-10.4969
社会主義	-10.497
アレ	-10.4971
クロー	-10.4974
1940	-10.4977
寺院	-10.4977
スポンサー	-10.4977
、1970	-10.4979
晋	-10.498
追い	-10.498
インター	-10.4981
怒	-10.4981
選挙区	-10.4984
続け	-10.4985
歳の	-10.4985
積極的に	-10.499
概念	-10.4992
LA	-10.4996
絶対	-10.4998
自社	-10.4998
1926	-10.4998
又は	-10.4999
最低	-10.5003
ボス	-10.5004
ヨー	-10.5005
王子	-10.5009
同期	-10.5016
ユース	-10.5019
強制	-10.5022
上演	-10.5024
NS	-10.5026
売却	-10.5028
ゴルフ	-10.5028
魂	-10.5029
、2001	-10.5029
ミング	-10.503
に基づき	-10.5034
サウンド	-10.5038
月刊	-10.5038
屋敷	-10.5039
を置く	-10.5048
人間の	-10.5049
の父	-10.505
mo	-10.5052
ソウル	-10.5053
買収	-10.5056
の位置	-10.5056
地方の	-10.5058
追放	-10.506
相撲	-10.5061
1977	-10.5061
良く	-10.5062
を感じ	-10.5062
接触	-10.5063
菊	-10.5066
バトル	-10.5066
アブ	-10.5067
活用	-10.5071
焼き	-10.5072
少数	-10.5073
の対象	-10.5074
)8	-10.5075
にいた	-10.5075
含	-10.5076
連覇	-10.5079
NO	-10.5083
3000	-10.5084
発見された	-10.5087
られて	-10.5089
ti	-10.5092
女王	-10.5092
毎	-10.5094
を見せ	-10.5095
ないし	-10.5096
わない	-10.5096
インチ	-10.5098
ity	-10.5098
熊	-10.5099
に参加し	-10.51
1967	-10.5103
ってきた	-10.5105
さえ	-10.5107
常に	-10.5113
緊急	-10.5116
球場	-10.5117
率は	-10.5118
討	-10.5118
1919	-10.5119
HO	-10.512
収集	-10.5125
ラント	-10.5125
資産	-10.5125
寄り	-10.5125
ゆう	-10.5126
パーソナリティ	-10.513
を開始	-10.5136
人類	-10.5139
区の	-10.5139
るために	-10.5139
騎兵	-10.514
相談	-10.5142
区分	-10.5142
脱出	-10.5143
入手	-10.5144
べく	-10.5144
漢字	-10.5145
回目の	-10.5148
ノース	-10.5149
一連の	-10.5152
幹	-10.5153
興行	-10.5154
国際空港	-10.5158
本拠地	-10.5158
誤	-10.5158
ロゴ	-10.5163
襲撃	-10.5171
敷	-10.5173
の放送	-10.5174
たもの	-10.5176
。2004	-10.5177
頃に	-10.5177
157	-10.5178
推定	-10.5178
ハム	-10.5184
成分	-10.5184
みな	-10.5186
ツー	-10.5188
伸び	-10.5189
▁日本では	-10.519
で放送された	-10.5191
複合	-10.5194
がなく	-10.5196
ドール	-10.5197
のみならず	-10.5197
桁	-10.5199
塾	-10.52
ないため	-10.5201
バイパス	-10.5202
1922	-10.5202
伝承	-10.5202
閣	-10.5204
働き	-10.5208
弟子	-10.521
前半	-10.5213
長男	-10.5215
株式	-10.5215
県の	-10.5217
両編成	-10.5218
tion	-10.5219
征	-10.5219
発達	-10.5221
を使った	-10.5223
拒否	-10.5223
が設置され	-10.5224
菜	-10.5224
総督	-10.5224
知られる	-10.5225
基礎	-10.5226
性が	-10.5231
体育	-10.5233
賞を受賞した	-10.5239
世が	-10.524
袋	-10.5241
方言	-10.5244
ピア	-10.5245
_1	-10.5246
の戦いで	-10.5248
したがって	-10.5249
クリア	-10.5249
元々	-10.5249
統	-10.525
学術	-10.5251
フィンランド	-10.5255
ブラウン	-10.5256
裁	-10.5257
TE	-10.5258
ニュ	-10.526
AD	-10.5263
銀河	-10.5265
発電所	-10.5265
化する	-10.5268
争	-10.5268
ライセンス	-10.5273
タール	-10.5274
コレクション	-10.5274
手に	-10.5274
用に	-10.5278
鷹	-10.5282
の中でも	-10.5284
天皇の	-10.5285
周辺の	-10.5286
ボディ	-10.5289
上がり	-10.5291
は全て	-10.5291
分解	-10.5294
を作り	-10.5294
県道	-10.5295
補助	-10.5295
位に	-10.5298
ub	-10.5298
1944	-10.53
の乱	-10.5303
当該	-10.5307
と言われている	-10.5307
印象	-10.5308
確立	-10.531
するようになった	-10.5312
それらの	-10.5314
シリア	-10.5315
坊	-10.5315
なもの	-10.5317
呼ばれ	-10.5318
ud	-10.5321
▁1998	-10.5324
後方	-10.5325
猛	-10.5328
)9	-10.5329
どの	-10.5329
濃	-10.5333
ているが	-10.5334
後述	-10.5338
あらゆる	-10.5339
世帯	-10.5341
固有	-10.5342
人工	-10.5343
使われた	-10.5344
判	-10.5345
昔	-10.5348
アウ	-10.535
自殺	-10.5352
解析	-10.5352
ハート	-10.5355
往復	-10.5356
NE	-10.5358
北西	-10.5359
は大	-10.5359
キル	-10.536
は日本の	-10.5361
下で	-10.5361
MC	-10.5369
おう	-10.537
ローカル	-10.537
監視	-10.5371
ところが	-10.5373
▁16	-10.5374
スピード	-10.538
載	-10.538
安打	-10.5384
消防	-10.5384
金沢	-10.5387
放送局	-10.5388
ロイド	-10.5389
逃れ	-10.5391
カレッジ	-10.5391
いだ	-10.5392
織	-10.5392
買	-10.5396
溝	-10.5397
上部	-10.5399
求	-10.5401
砦	-10.5405
を迎え	-10.5405
作品は	-10.5408
は非常に	-10.5412
に加えて	-10.5412
から発売された	-10.5415
整理	-10.5416
バート	-10.5418
の方が	-10.5418
▁1980	-10.5419
となったが	-10.542
の中には	-10.542
を重ね	-10.5421
者である	-10.5423
モス	-10.5428
を最後に	-10.5428
誘	-10.543
アマチュア	-10.5434
財産	-10.5434
試合で	-10.5435
連れ	-10.5439
過程	-10.5439
明らか	-10.544
▁&	-10.5446
コメディ	-10.5448
タス	-10.5449
まとめ	-10.5449
フィリップ	-10.545
化し	-10.5453
長野	-10.5456
王朝	-10.5459
しさ	-10.5459
配備	-10.546
利用者	-10.5462
家臣	-10.5462
神話	-10.5463
-7	-10.5463
の前	-10.5464
込	-10.5466
との関係	-10.5467
壊	-10.5468
巨人	-10.5469
原題	-10.5471
パートナー	-10.5471
南北	-10.5471
さない	-10.5471
銘	-10.5472
民主	-10.5473
ハイム	-10.5476
たこと	-10.5476
上下	-10.5483
年後の	-10.5484
田村	-10.5484
一致	-10.5485
灰	-10.5486
慶長	-10.5489
者として	-10.549
山の	-10.5493
の音楽	-10.5493
ーニ	-10.5494
含まれ	-10.5496
僕	-10.5497
エース	-10.5499
者を	-10.55
敗退	-10.5502
がわ	-10.5502
シップ	-10.5503
スキ	-10.5503
ちなみに	-10.5504
)、『	-10.5506
一帯	-10.5506
イタリアの	-10.551
在住	-10.551
ました	-10.5511
三重県	-10.5512
司令部	-10.5513
法の	-10.5515
ドイツ語	-10.552
を達成	-10.5521
哲	-10.5521
日に行われた	-10.5523
火災	-10.5527
を見て	-10.553
ゴールド	-10.5531
公式サイト	-10.5532
知られている	-10.5532
任命	-10.5532
ギャ	-10.5535
毎日	-10.5535
堅	-10.5536
雇用	-10.5539
UEFA	-10.5539
を示した	-10.554
来た	-10.554
たる	-10.5541
時計	-10.5542
攻略	-10.5545
実績	-10.5547
俗	-10.5548
誰	-10.5548
すぎ	-10.5548
CH	-10.5549
の記録	-10.5555
必要がある	-10.5557
するよう	-10.5558
ヤード	-10.556
することは	-10.5561
抗議	-10.5561
内容は	-10.5562
助教授	-10.5562
初回	-10.5563
以前に	-10.5565
脱退	-10.5565
158	-10.5566
捕	-10.5576
ウイルス	-10.5586
葛	-10.5588
撤去	-10.5588
と言われる	-10.559
進む	-10.5591
部は	-10.5593
用途	-10.5593
1965	-10.5594
締結	-10.5596
このように	-10.5597
号は	-10.5597
年代から	-10.5597
休止	-10.5599
した場合	-10.5599
プロイセン	-10.5603
1921	-10.5605
近年	-10.5606
煙	-10.5606
CS	-10.5607
1966	-10.5609
電鉄	-10.5609
ケット	-10.5609
五郎	-10.5611
弓	-10.5615
爆弾	-10.5617
▁X	-10.5619
を使う	-10.562
軍を	-10.5623
救	-10.5623
そのうち	-10.5624
観察	-10.5628
od	-10.5632
フロ	-10.5633
点で	-10.5635
粒子	-10.5635
船団	-10.5636
捕虜	-10.5638
を迎えた	-10.5639
大会で	-10.564
別名	-10.5645
約束	-10.5649
する場合	-10.5649
広い	-10.5653
トーナメント	-10.5656
大佐	-10.5659
くる	-10.5662
独立した	-10.5664
競争	-10.5664
ほとんどの	-10.5668
剛	-10.567
違う	-10.567
郭	-10.5671
掛	-10.5672
フロント	-10.5675
目に	-10.5675
ピーター	-10.5676
包囲	-10.5679
黄色	-10.568
右衛門	-10.5681
スカイ	-10.5682
平野	-10.5682
支部	-10.5683
一家	-10.5686
完	-10.5692
きゅう	-10.5698
リップ	-10.5699
中将	-10.57
少なくとも	-10.5702
を率いて	-10.5702
リーグ戦	-10.5702
ラウンド	-10.5703
コメント	-10.5703
中華人民共和国	-10.5705
が始まった	-10.5706
ビス	-10.5708
グランド	-10.5709
ヴェー	-10.571
修理	-10.5711
▁Co	-10.5711
舟	-10.5712
最後に	-10.5712
を認め	-10.5714
紋	-10.5719
その後の	-10.572
京都府	-10.572
ジェイ	-10.5721
再編	-10.5723
に選ばれた	-10.5725
しょ	-10.5725
取った	-10.5725
ビュー	-10.5726
DO	-10.5729
差別	-10.5729
ものがある	-10.5729
われる	-10.5729
解消	-10.5731
阪	-10.5731
懐	-10.5731
一般的に	-10.5732
ディズニー	-10.5732
途	-10.5733
頭部	-10.5734
ツィ	-10.5736
この時期	-10.5736
自動車道	-10.5737
てん	-10.5737
事実上	-10.5738
新設	-10.5739
ルイス	-10.5741
っと	-10.5747
〜』	-10.5747
国会	-10.5747
最優秀	-10.575
例外	-10.5751
▁Ch	-10.5752
▁新	-10.5752
なかったため	-10.5754
アルゼンチン	-10.5761
156	-10.5765
スミス	-10.5766
ゼル	-10.5767
ベラ	-10.5767
MP	-10.5768
続編	-10.5772
em	-10.5774
ジャケット	-10.5776
""	-10.5776
こととなった	-10.5779
ディス	-10.5782
ナス	-10.5784
やり	-10.5784
士官	-10.5786
現在でも	-10.5786
社員	-10.5788
そんな	-10.5788
ak	-10.5791
西洋	-10.5795
尻	-10.5797
ノルウェー	-10.5799
駆動	-10.58
演技	-10.5801
違	-10.5801
900	-10.5803
物を	-10.5806
フィル	-10.5806
過去に	-10.5806
優れた	-10.5807
圧力	-10.5809
フォル	-10.5811
キロ	-10.5812
戦艦	-10.5815
複	-10.5816
キャンプ	-10.5818
ED	-10.5824
の姿	-10.5826
ゼロ	-10.5827
火山	-10.583
水素	-10.5831
上記の	-10.5833
したものの	-10.5834
ずに	-10.5841
発着	-10.5844
-10	-10.5845
吾	-10.5847
肥	-10.5848
バレーボール	-10.5849
いていた	-10.585
用いられた	-10.585
感染	-10.5851
に加入	-10.5851
大将	-10.5851
蒲	-10.5852
徳川	-10.5856
ボーカル	-10.5857
根拠	-10.5859
SO	-10.5859
時から	-10.586
に分かれ	-10.586
気象	-10.5861
詰め	-10.5866
トラン	-10.5866
バリ	-10.5867
八幡	-10.5869
詞	-10.5873
に乗り	-10.5874
やす	-10.5875
趣味	-10.5877
SI	-10.5877
コート	-10.5877
一定の	-10.5879
森林	-10.5882
啓	-10.5883
飾	-10.5883
を変え	-10.5884
ース	-10.5885
一定	-10.5886
▁1997	-10.5886
松平	-10.5887
1914	-10.5887
メガ	-10.5889
に分類される	-10.5889
前期	-10.589
ることになった	-10.589
出現	-10.5891
に次ぐ	-10.5892
創業	-10.5895
が開始された	-10.5896
)5	-10.5897
ナム	-10.5899
今後	-10.5899
ではなかった	-10.59
の死	-10.5902
ファイ	-10.5902
かない	-10.5903
そこ	-10.5904
享年	-10.5909
が大きく	-10.5909
拠	-10.5911
当初の	-10.5912
を持って	-10.5913
代替	-10.5914
ボード	-10.5921
1917	-10.5921
署	-10.5923
答え	-10.5925
育	-10.5925
群馬県	-10.5925
マルチ	-10.5928
-8	-10.5928
メッセージ	-10.5929
したものである	-10.5929
密度	-10.5934
タンク	-10.5937
軍隊	-10.594
にした	-10.5942
平日	-10.5943
泊	-10.5944
乃	-10.5944
KA	-10.5945
ができる	-10.5945
ドーム	-10.5945
ものだった	-10.5945
うる	-10.5945
鎌倉	-10.5946
好き	-10.5947
かどうか	-10.5948
警備	-10.5949
大使	-10.5953
講	-10.5954
北東	-10.5955
自宅	-10.5957
基本的に	-10.5962
座席	-10.5962
AI	-10.5964
ハワイ	-10.5964
の仕事	-10.5968
家は	-10.5969
効	-10.5969
福祉	-10.5971
を利用して	-10.5972
出来事	-10.5972
らせ	-10.5973
、2019	-10.5973
に合わせて	-10.5975
らしい	-10.5975
地区の	-10.5976
抜き	-10.5977
白い	-10.5977
と語っている	-10.5977
申	-10.5979
詩人	-10.5979
hi	-10.5982
とり	-10.5982
笑	-10.5983
ごと	-10.5986
限り	-10.5989
侍	-10.5993
ヤング	-10.5993
朝の	-10.5994
繁殖	-10.6
入力	-10.6004
伝え	-10.6004
されるようになった	-10.6012
範	-10.6017
と述べた	-10.6018
などと	-10.602
すら	-10.6021
ブリッジ	-10.6023
陸上	-10.6026
ウー	-10.6028
直後に	-10.6029
いつ	-10.603
ガンダム	-10.6033
端末	-10.6034
ist	-10.6037
。2000	-10.6039
に向かう	-10.6039
を除き	-10.6043
異常	-10.6045
見解	-10.6047
連結	-10.6047
–	-10.6048
察	-10.6052
を持っていた	-10.6058
顕	-10.606
全域	-10.606
高松	-10.6063
の三	-10.6068
age	-10.6068
見る	-10.6069
早稲田大学	-10.6077
世紀に	-10.6078
私立	-10.6079
申請	-10.608
の活動	-10.6082
1912	-10.6085
会社の	-10.6085
。2018	-10.6087
文明	-10.6089
証言	-10.6091
を得	-10.6091
佳	-10.6092
AP	-10.6097
使う	-10.6098
麦	-10.61
木村	-10.6104
成果	-10.6106
主要な	-10.6107
350	-10.6109
に大きな	-10.6113
大隊	-10.6116
に向かって	-10.6119
|	-10.612
チェン	-10.6122
磨	-10.6123
に変更された	-10.6123
為に	-10.6125
レール	-10.6126
序	-10.6127
ッティ	-10.6128
社名	-10.6129
キャンパス	-10.6132
he	-10.6132
宣伝	-10.6132
ファミリー	-10.6136
1900	-10.6138
秦	-10.614
ウィル	-10.6143
▁1996	-10.6143
特性	-10.6145
要因	-10.6147
メス	-10.615
は以下の通り	-10.615
らと	-10.615
婚	-10.6151
、1999	-10.6153
ポップ	-10.6157
の意	-10.6162
屈	-10.6162
ベリー	-10.6163
ノス	-10.6164
エフ	-10.617
共演	-10.6175
の死後	-10.6176
ディン	-10.6177
リャ	-10.6178
ドロ	-10.6178
グループの	-10.6179
TS	-10.618
こうして	-10.6181
出席	-10.6185
を代表する	-10.6186
静岡	-10.6188
大学教授	-10.619
応援	-10.6193
糖	-10.6193
鼻	-10.6194
年の第	-10.6194
155	-10.6195
寧	-10.6196
起用	-10.6197
ian	-10.6197
語り	-10.6199
損	-10.6202
離婚	-10.6203
の地	-10.6205
コム	-10.6205
を使用した	-10.6207
まった	-10.6209
で優勝	-10.6219
委託	-10.6219
パフォーマンス	-10.622
地形	-10.6221
祭り	-10.6223
キュー	-10.6225
まつ	-10.6226
紫	-10.6228
の神	-10.6229
セルビア	-10.6232
▁小	-10.6234
神宮	-10.6236
リスク	-10.6237
経路	-10.6238
山城	-10.6238
族の	-10.6242
アニ	-10.6243
込め	-10.6243
るように	-10.6244
キャスト	-10.6244
氏は	-10.6244
選手権大会	-10.6249
頂	-10.625
見られ	-10.6251
one	-10.6251
研	-10.6252
自民党	-10.6252
▁for	-10.6253
権限	-10.6254
選定	-10.6257
ウム	-10.6258
合格	-10.6261
向けに	-10.6264
を描く	-10.6264
宅	-10.6268
手がけ	-10.6268
授業	-10.6269
一本	-10.627
を含め	-10.6274
投稿	-10.6275
の違い	-10.6276
ーノ	-10.6278
ていなかった	-10.6279
連携	-10.6281
降格	-10.6284
の家	-10.6284
エド	-10.6287
ボックス	-10.6287
防御	-10.6289
道具	-10.629
岡山県	-10.629
著書	-10.6291
の上に	-10.6291
号機	-10.6291
特許	-10.6291
天文	-10.6292
課程	-10.6293
局長	-10.6293
昼	-10.6294
当局	-10.6294
改め	-10.6298
という言葉	-10.6298
非難	-10.6298
水道	-10.6299
周囲	-10.63
ライダー	-10.63
こく	-10.63
を進め	-10.6301
行く	-10.6303
呼	-10.6304
大橋	-10.6305
空母	-10.6306
ないこと	-10.6306
であっても	-10.6307
ment	-10.6308
譲渡	-10.6308
基盤	-10.631
ドラゴン	-10.631
海洋	-10.6312
発明	-10.6314
ヴォル	-10.6316
始める	-10.6321
渋谷	-10.6322
じん	-10.6325
冒険	-10.6327
茎	-10.6327
に入社	-10.633
監	-10.6331
司会	-10.6331
が存在し	-10.6332
腰	-10.6333
高速道路	-10.6333
bo	-10.6335
会の	-10.6337
ロシアの	-10.6338
消滅	-10.6338
海峡	-10.6338
レーダー	-10.6339
に出演	-10.634
以外は	-10.6342
詳細	-10.6343
を結成	-10.6343
主導	-10.6344
質量	-10.6345
それでも	-10.6347
再現	-10.635
徹	-10.6353
GI	-10.6355
二つの	-10.6359
錦	-10.6359
禅	-10.636
貸	-10.6361
北米	-10.6362
極めて	-10.6364
鋭	-10.6373
処	-10.6374
到達	-10.6375
ow	-10.6377
事例	-10.6378
まれた	-10.6381
フライ	-10.6382
太田	-10.6382
ING	-10.6383
紛争	-10.6385
この地	-10.6385
所属の	-10.6388
献	-10.6392
上り	-10.6394
開業した	-10.6397
の設計	-10.6399
sp	-10.64
難しい	-10.6401
訪問	-10.6401
オリンピックの	-10.6404
の中では	-10.6405
不動産	-10.6405
降り	-10.6405
THE	-10.6408
本体	-10.6409
構築	-10.6416
囲	-10.6417
▁1995	-10.6417
鉄道の	-10.6418
まん	-10.6419
最新	-10.6419
中央部	-10.6419
用いられる	-10.6421
)6	-10.6421
動力	-10.6422
art	-10.6422
死刑	-10.6423
ものもある	-10.6427
募集	-10.6429
村の	-10.6432
見られる	-10.6432
を出した	-10.6432
警察署	-10.6434
湿	-10.6435
ルス	-10.6435
子会社	-10.6436
パターン	-10.6439
シナ	-10.644
ウェスト	-10.644
しりつ	-10.6441
上流	-10.6442
崇	-10.6442
事が	-10.6444
を守る	-10.6444
の時代	-10.6445
▁現在	-10.6445
da	-10.6445
名義	-10.6448
》	-10.6451
まい	-10.6453
付ける	-10.6454
《	-10.6458
時代には	-10.646
▁In	-10.6461
死亡した	-10.6463
ホン	-10.6464
ショップ	-10.6469
突然	-10.6471
回戦	-10.6472
回衆議院議員総選挙	-10.6473
染	-10.6474
拳	-10.6477
は日本	-10.6478
125	-10.648
本土	-10.6482
呼称	-10.6486
語の	-10.6488
譜	-10.6488
損傷	-10.6493
君主	-10.6494
鹿児島	-10.6494
1910	-10.6494
本来	-10.6496
くなる	-10.6496
保守	-10.6498
は第	-10.6503
ふく	-10.6504
ion	-10.6505
グレイ	-10.6505
バスケットボール	-10.6509
商人	-10.651
発音	-10.6511
年以上	-10.6512
威	-10.6512
語で	-10.6513
アカ	-10.6516
ターミナル	-10.6518
吸収	-10.6518
輔	-10.6519
酵素	-10.6521
▁同年	-10.6528
必要な	-10.6529
旅団	-10.653
河内	-10.653
込まれ	-10.6534
意図	-10.6535
同日	-10.6537
必ず	-10.6537
名古屋市	-10.6548
シェル	-10.6548
一丁目	-10.6552
ポル	-10.6552
出して	-10.6552
月現在	-10.6553
ミリ	-10.6556
の楽曲	-10.6557
なので	-10.6558
があったが	-10.6559
イラク	-10.6561
正式	-10.6561
荷	-10.6563
SD	-10.6564
の妻	-10.6565
マグ	-10.6569
訴	-10.6569
存続	-10.657
呂	-10.657
南東	-10.657
連勝	-10.6573
ナンバー	-10.6574
経過	-10.6575
亭	-10.658
ネン	-10.6584
銭	-10.6584
反発	-10.6585
オンライン	-10.6586
巨大な	-10.6586
確定	-10.6587
解除	-10.6591
応用	-10.6594
教員	-10.6594
されてきた	-10.6595
空襲	-10.6597
の製造	-10.6598
▁Me	-10.6599
によっては	-10.66
運航	-10.6601
航海	-10.6602
新田	-10.6609
情報を	-10.661
えん	-10.6612
過ぎ	-10.6612
ts	-10.6612
用いられている	-10.6613
過去の	-10.6617
催	-10.6618
富山	-10.6619
あら	-10.6621
ズは	-10.6623
軍に	-10.6624
を務めていた	-10.6624
披露	-10.6625
ヴェン	-10.6626
イズ	-10.6627
沖縄県	-10.6628
積み	-10.6629
が設置されている	-10.6629
依	-10.6629
かね	-10.663
ランク	-10.6637
をはじめとする	-10.6639
携帯電話	-10.6641
中心部	-10.6644
if	-10.6647
標	-10.6647
うえ	-10.6648
と呼ばれている	-10.665
多摩	-10.6652
エンド	-10.6655
レストラン	-10.6656
意思	-10.6656
えて	-10.6659
勘	-10.6661
腸	-10.6662
中期	-10.6663
SH	-10.6663
指揮官	-10.6666
えない	-10.6668
既	-10.6668
山地	-10.6671
魚雷	-10.6671
ブーム	-10.6674
スリー	-10.6675
オーディション	-10.6676
を離れ	-10.6677
主題	-10.6679
ソニー	-10.6679
▁d	-10.668
寮	-10.6682
を実施	-10.6684
際には	-10.6685
人口は	-10.6686
しゅう	-10.6686
朗	-10.6687
下部	-10.6687
伝統	-10.669
もない	-10.669
リク	-10.669
と改称	-10.6696
スピ	-10.6697
弟の	-10.6698
埋め	-10.67
課題	-10.6701
チームが	-10.6701
免	-10.6706
歳以上	-10.6706
大学大学院	-10.6707
フォーク	-10.6708
の実	-10.6708
殺人	-10.6709
疾患	-10.671
ミッション	-10.6714
上記	-10.6715
地位	-10.6716
KI	-10.6719
として活躍	-10.672
、1998	-10.672
夏の	-10.6722
還	-10.6723
▁De	-10.6725
のみが	-10.6726
高級	-10.6727
繁	-10.6728
同社の	-10.6728
一つの	-10.6728
ファースト	-10.6729
初出場	-10.673
360	-10.6731
が高く	-10.6733
徒	-10.6735
故郷	-10.6736
垣	-10.6737
シュタイン	-10.6739
参加した	-10.6745
ついに	-10.6746
管轄	-10.6746
ティア	-10.6746
の数	-10.6749
キア	-10.675
の小	-10.6752
宮城県	-10.6754
旭	-10.6754
フレーム	-10.6755
いくつか	-10.6755
タワー	-10.6756
シンガポール	-10.676
日本テレビ	-10.6764
芸能	-10.6768
中野	-10.6769
自分が	-10.677
駅の	-10.6772
人形	-10.6774
Br	-10.6776
可能である	-10.6777
日付で	-10.6779
時間帯	-10.6781
数多くの	-10.6783
の生産	-10.6784
モア	-10.6784
午後	-10.6785
ロフ	-10.6785
方の	-10.6785
松山	-10.6788
の中から	-10.679
理事長	-10.6791
正規	-10.6793
開設	-10.6794
前年	-10.6795
会館	-10.6798
篇	-10.6798
修了	-10.6799
ウォ	-10.6801
公式戦	-10.6801
されず	-10.6803
受信	-10.6807
磁	-10.6808
一軍	-10.6809
結び	-10.681
あき	-10.6812
不満	-10.6812
と結婚	-10.6812
マガジン	-10.6812
以外に	-10.6814
ここに	-10.6815
出馬	-10.6817
線と	-10.682
かす	-10.682
先の	-10.6829
エドワード	-10.6834
面で	-10.6837
と契約	-10.6842
の前に	-10.6843
普	-10.6845
ci	-10.6849
時代は	-10.6849
によるもの	-10.6849
ファイナル	-10.685
調べ	-10.685
パソコン	-10.6851
に師事	-10.6851
訓	-10.6853
以外	-10.6853
勃発	-10.6855
の再	-10.6855
を失った	-10.6855
ツェ	-10.6856
甲板	-10.6858
pe	-10.6859
岡田	-10.6859
主題歌	-10.686
に復帰	-10.6862
ni	-10.6862
下に	-10.6863
ろうと	-10.6865
じゅう	-10.6869
先頭	-10.687
測	-10.687
フリードリヒ	-10.687
ラップ	-10.6872
に所属する	-10.6872
ではあるが	-10.6874
作品である	-10.6877
退任	-10.6877
を抱え	-10.6878
であることを	-10.6878
官僚	-10.6879
LO	-10.6879
。2003	-10.688
突	-10.6881
突き	-10.6882
はなかった	-10.6883
タンパク質	-10.6886
送信	-10.6886
が発生し	-10.6889
るという	-10.6889
di	-10.6889
北方	-10.6893
線を	-10.6896
聖書	-10.6897
家に	-10.6899
このうち	-10.6899
終了後	-10.69
実装	-10.6902
に出場	-10.6907
に含まれる	-10.6907
反映	-10.6907
とは異なり	-10.6907
を続け	-10.6908
年シーズン	-10.6908
ボーイ	-10.691
この地域	-10.6911
ペア	-10.6911
要塞	-10.6912
時代から	-10.6912
に所属していた	-10.6915
ドライブ	-10.6915
罰	-10.6916
▁b	-10.6916
なくなる	-10.6916
IA	-10.6917
用意	-10.6918
乾	-10.6919
売上	-10.6924
忍	-10.6925
終結	-10.6926
大名	-10.6927
ボストン	-10.693
なくなり	-10.6932
ダブル	-10.6932
ボタン	-10.6934
アッ	-10.6937
、1960	-10.6937
読者	-10.6937
ここでは	-10.6938
本編	-10.6938
、1996	-10.6942
史料	-10.6942
LD	-10.6945
IR	-10.6945
困難	-10.6949
、1997	-10.6956
行われている	-10.6956
1913	-10.6957
孔	-10.6958
ボクシング	-10.6958
物の	-10.696
選挙で	-10.6961
亡命	-10.6963
乗り入れ	-10.6968
鉱山	-10.6969
即位	-10.6969
出資	-10.6973
日記	-10.6974
が多数	-10.6975
期に	-10.6975
間で	-10.6979
欲	-10.6981
ru	-10.6984
係	-10.6985
針	-10.6985
ve	-10.6986
併	-10.6986
退職	-10.6989
トリー	-10.6989
パッケージ	-10.699
者たち	-10.6991
を構成する	-10.6995
一旦	-10.6995
メダル	-10.7
近鉄	-10.7001
さま	-10.7001
簡	-10.7002
▁西	-10.7004
誓	-10.7005
などから	-10.7006
▁w	-10.7008
厳しい	-10.701
感情	-10.7012
古くから	-10.7013
フェリー	-10.7014
都市圏	-10.7017
に戻った	-10.7019
レッ	-10.7021
位で	-10.7022
を元に	-10.7022
もり	-10.7029
シナリオ	-10.7031
ルン	-10.7031
社会的	-10.7031
の声	-10.7035
、1995	-10.7037
まさ	-10.7039
いで	-10.7041
方向に	-10.7044
プス	-10.7045
、1994	-10.7048
トランス	-10.7048
出て	-10.7048
▁東京	-10.7048
拝	-10.7049
出来る	-10.705
風の	-10.7051
達成	-10.7051
そこから	-10.7052
サウス	-10.7052
方が	-10.7056
の指導	-10.7057
遺体	-10.7058
[	-10.7062
震	-10.7063
内には	-10.7064
宮崎	-10.7064
郵便	-10.7065
を除いて	-10.7068
とある	-10.7068
飼育	-10.707
ウイ	-10.7071
プライ	-10.7072
することとなった	-10.7072
に戻り	-10.7074
の影響で	-10.7076
ソビエト連邦	-10.7078
面積は	-10.708
▁1994	-10.7082
小さく	-10.7083
ang	-10.7084
奉行	-10.7087
リニューアル	-10.7088
賞受賞	-10.7089
にわたり	-10.7091
量の	-10.7091
プール	-10.7092
同士	-10.7093
テレビ番組	-10.7093
デザイナー	-10.7095
に比べて	-10.7095
夜間	-10.7096
校舎	-10.7097
ゴールデン	-10.7098
伝統的な	-10.7098
に入団	-10.7098
地の	-10.7099
に移り	-10.71
北側	-10.7101
ディレクター	-10.7103
を取る	-10.7103
の内	-10.7105
回数	-10.7106
市町村	-10.7106
がい	-10.7107
シオ	-10.7109
の国	-10.7109
our	-10.7109
殻	-10.7111
アプリケーション	-10.7113
自主	-10.7116
ツール	-10.7116
1911	-10.7118
浄	-10.7119
篠	-10.7119
補給	-10.712
暮らし	-10.712
トレーニング	-10.712
干	-10.7123
DI	-10.7123
に至った	-10.7127
ストーン	-10.7128
鹿児島県	-10.7133
に従って	-10.7135
po	-10.7137
塗装	-10.7139
盛り	-10.714
年ぶりに	-10.7145
陸上競技	-10.7146
怪我	-10.7146
翔	-10.7147
セレ	-10.7147
ちゃ	-10.7148
農民	-10.7148
SU	-10.7148
ぜ	-10.7149
出版された	-10.7151
請求	-10.7154
が発表された	-10.7156
数多く	-10.7156
ようになっている	-10.7157
GT	-10.7161
攻め	-10.7163
藩の	-10.7164
スペ	-10.7167
に成功	-10.7169
残った	-10.7169
オフィス	-10.717
室内	-10.7171
受験	-10.7172
を理由に	-10.7172
巡洋艦	-10.7174
来る	-10.7175
射撃	-10.7178
ブログ	-10.7179
妃	-10.718
素材	-10.7183
存	-10.7184
司馬	-10.7185
ファル	-10.7186
中島	-10.7188
を受けている	-10.7194
機が	-10.7195
を達成した	-10.7196
土曜	-10.7198
ies	-10.7199
若手	-10.7203
分に	-10.7204
もし	-10.7208
敗戦	-10.721
認められ	-10.721
年代後半	-10.7211
ide	-10.7214
ラリー	-10.7215
を決めた	-10.7215
関与	-10.7215
ボート	-10.7216
熟	-10.7217
各国	-10.7218
Re	-10.7219
部族	-10.7222
ノイ	-10.7223
に戻る	-10.7225
創作	-10.7225
を実現	-10.7227
プレス	-10.7232
出版社	-10.7232
を行うこと	-10.7236
疑問	-10.7244
トーマス	-10.7245
署名	-10.7246
ることで	-10.7247
に帰	-10.7248
に対しては	-10.7249
目的で	-10.725
を獲得し	-10.725
滞在	-10.7251
になっており	-10.7261
珠	-10.7261
瑞	-10.7261
、1992	-10.7262
暫定	-10.7263
イト	-10.7263
ゲート	-10.7263
導入された	-10.7264
年代には	-10.7265
男爵	-10.7266
かれた	-10.727
乗客	-10.727
確率	-10.727
英雄	-10.7273
ライバル	-10.7274
が多かった	-10.7277
に存在する	-10.7277
の都市	-10.728
映	-10.7284
もあって	-10.7287
炭	-10.7287
地図	-10.7289
ヨン	-10.7292
ある日	-10.7293
代表的な	-10.7293
遺産	-10.7295
都道府県	-10.7295
施	-10.7298
1915	-10.7299
OL	-10.7301
幻	-10.7304
船舶	-10.7306
キャン	-10.7307
イェ	-10.7307
泥	-10.7308
楊	-10.7311
二重	-10.7312
教室	-10.7313
クイズ	-10.7314
年間の	-10.7317
やすく	-10.7318
サンタ	-10.7321
ゴル	-10.7323
▁1970	-10.7323
制覇	-10.7324
告	-10.7324
鍵	-10.7327
示唆	-10.7328
ヒーロー	-10.7333
貝	-10.7334
町にある	-10.7336
与えられる	-10.7337
熊本県	-10.7339
この作品	-10.7341
烈	-10.7342
だという	-10.7347
に沿って	-10.7347
癌	-10.7348
ight	-10.7348
合流	-10.735
がいた	-10.735
共有	-10.7351
短編	-10.7352
周波数	-10.7352
名で	-10.7353
象	-10.7354
近くの	-10.7354
人たち	-10.7355
の前身	-10.7358
クリス	-10.7358
に改称	-10.7363
養子	-10.7366
ェ	-10.7367
を記録	-10.7369
テイ	-10.737
の高さ	-10.7372
ガラ	-10.7374
ase	-10.7375
左衛門	-10.7375
巻き	-10.7376
恒	-10.7377
エク	-10.7379
サス	-10.738
ダービー	-10.7381
ロイヤル	-10.7386
ip	-10.7388
ガード	-10.7389
ことである	-10.7389
この曲	-10.7393
れて	-10.7394
の原因	-10.7395
回戦で	-10.7396
れない	-10.7397
もまた	-10.7397
放映	-10.7398
LI	-10.7398
EX	-10.7401
テープ	-10.7403
を与えた	-10.7406
▁Mo	-10.7406
に選ばれ	-10.7407
ビール	-10.7408
化合物	-10.7409
潤	-10.741
鮮	-10.741
▁明治	-10.7414
保有	-10.7415
出走	-10.7416
ore	-10.7416
インターナショナル	-10.7417
ID	-10.7418
に従事	-10.7419
sa	-10.7423
RC	-10.7423
かかる	-10.7423
理学	-10.7424
削減	-10.7424
ET	-10.7425
ノール	-10.7426
発電	-10.7429
▁株式会社	-10.7429
機動	-10.743
しゅ	-10.743
専用の	-10.7431
リル	-10.7432
ライター	-10.7432
の他に	-10.7434
発表した	-10.7434
菅	-10.7435
椎	-10.7436
筒	-10.7436
市に	-10.7438
がん	-10.7439
日に発売された	-10.7442
若干	-10.7443
ニュージーランド	-10.7444
ミュージカル	-10.7444
所在地	-10.7444
宮殿	-10.7446
コフ	-10.7448
したい	-10.7449
子ども	-10.7452
亮	-10.7453
有力	-10.7453
コウ	-10.7455
を担当	-10.7456
広域	-10.7457
であるという	-10.7462
の発展	-10.7462
ナチス	-10.7463
苦し	-10.7463
の変化	-10.7464
に生まれた	-10.7467
は全	-10.7468
逸	-10.7468
オーケストラ	-10.747
傘下	-10.747
保持	-10.7471
インドネシア	-10.7472
コムーネ	-10.7473
行列	-10.7474
、1993	-10.7477
涼	-10.7478
の二	-10.7485
が進められ	-10.7486
入社	-10.7488
それまでの	-10.749
暴力	-10.7494
を果たし	-10.7495
判明	-10.7498
してしまった	-10.7499
の一環として	-10.7501
航路	-10.7501
バード	-10.7509
途中で	-10.751
次に	-10.7512
霧	-10.7512
DF	-10.7514
の内容	-10.7515
評論家	-10.7516
="2"|-||	-10.7518
ワーク	-10.7519
、1989	-10.7519
原理	-10.7522
電波	-10.7522
市内の	-10.7528
タッグ	-10.7529
でん	-10.7529
ユニ	-10.753
が挙げられる	-10.753
直後	-10.7531
するか	-10.7533
年までに	-10.7533
はすべて	-10.7533
勝利した	-10.7534
淳	-10.7535
のことを	-10.7538
国籍	-10.754
欧米	-10.7543
ドラム	-10.7543
を機に	-10.7544
教皇	-10.7545
控え	-10.7546
した際に	-10.7546
トロン	-10.7547
国内で	-10.7547
の共同	-10.7549
レンズ	-10.755
前身	-10.7551
貢献	-10.7551
オープニング	-10.7551
がその	-10.7552
高原	-10.7553
縮小	-10.7555
カタ	-10.7555
▁1992	-10.7556
、1991	-10.7557
助け	-10.7557
悪い	-10.7561
天体	-10.7561
武田	-10.7565
赤い	-10.7565
避難	-10.7566
潜	-10.7568
が登場する	-10.7568
前田	-10.7571
に昇進	-10.7574
で知られる	-10.7575
挑	-10.7576
2020	-10.7577
管区	-10.7578
フェア	-10.7579
恋愛	-10.758
ポジション	-10.7581
立地	-10.7584
与え	-10.7584
去	-10.7586
の大きさ	-10.759
に敗れ	-10.7591
ガール	-10.7592
認知	-10.7593
ひと	-10.7596
晩年	-10.7598
使用された	-10.76
タイヤ	-10.7602
支店	-10.7605
アント	-10.7607
乗車	-10.7609
に指定されている	-10.761
すこと	-10.7612
専攻	-10.7619
シング	-10.7622
年度の	-10.7628
クレイ	-10.7629
辰	-10.7629
小野	-10.763
の販売	-10.763
テス	-10.7631
なかったが	-10.7633
初演	-10.7636
自身も	-10.7638
部分は	-10.764
戦前	-10.764
番組の	-10.7645
菓子	-10.7648
短縮	-10.7648
IV	-10.765
趙	-10.765
を記録し	-10.765
スパ	-10.7651
の森	-10.7651
の場	-10.7653
sc	-10.7653
着陸	-10.7655
数々の	-10.7656
グラス	-10.7659
太平洋戦争	-10.7659
ものとして	-10.766
奏者	-10.7661
ペット	-10.7662
岩手県	-10.7665
辛	-10.7667
を卒業	-10.7667
以外にも	-10.7668
あなた	-10.7669
を出す	-10.7669
強力な	-10.7673
繰り	-10.7673
▁東	-10.7674
1,000	-10.7674
替	-10.7676
死者	-10.7676
ロケ	-10.7677
青森県	-10.7679
回路	-10.7682
琴	-10.7683
165	-10.7683
蘇	-10.7685
碑	-10.7686
逆転	-10.7687
賞金	-10.769
トス	-10.7694
ティック	-10.7694
方程式	-10.7695
にあたって	-10.7696
In	-10.7696
療法	-10.7698
量は	-10.77
野村	-10.77
製造された	-10.7702
のだ	-10.7704
務めた	-10.7705
ki	-10.7706
ひとり	-10.7707
ハリ	-10.7709
クライ	-10.7709
停車	-10.7711
数値	-10.7711
プロセス	-10.7715
を挙げ	-10.7716
もなく	-10.7716
したことで	-10.7717
シャル	-10.7718
自身は	-10.7723
WA	-10.7724
急速に	-10.7725
を繰り返し	-10.7727
。2002	-10.7727
社が	-10.7734
わけではない	-10.7735
騎手	-10.7736
等で	-10.7737
コロンビア	-10.7739
いき	-10.774
指揮者	-10.774
続ける	-10.7741
勲章	-10.7744
庁舎	-10.7747
人数	-10.7751
Ch	-10.7753
違反	-10.7755
up	-10.7756
岐阜	-10.7758
綿	-10.7759
扇	-10.7759
にあたり	-10.7765
終盤	-10.7766
ace	-10.7767
▁1993	-10.7768
若者	-10.7772
1908	-10.7778
バイエルン	-10.7779
▁1991	-10.778
に貢献	-10.7782
ff	-10.7782
回収	-10.7784
平安時代	-10.7784
プー	-10.7786
RS	-10.7786
ニス	-10.7787
夫婦	-10.7788
貨	-10.7789
取る	-10.7793
美しい	-10.7793
ペー	-10.7793
1%	-10.7793
支え	-10.7795
移植	-10.7795
登山	-10.7798
堺	-10.7799
配給	-10.78
彫刻	-10.7802
化され	-10.7807
戦力	-10.7807
ストロ	-10.7808
起源	-10.7809
ect	-10.781
の外	-10.7811
で行われる	-10.7812
選手として	-10.7812
推	-10.7813
協議会	-10.7813
買い	-10.7814
古墳	-10.7814
に選出された	-10.7815
信頼	-10.7821
がそれぞれ	-10.7824
局の	-10.7824
だから	-10.7825
わか	-10.7829
メモリ	-10.7829
山口県	-10.7831
大規模	-10.7832
辞任	-10.7832
を立て	-10.7836
-9	-10.7838
亡くなった	-10.7838
最終的には	-10.784
本来の	-10.7846
の調査	-10.7847
磯	-10.7847
授与	-10.7848
うた	-10.7849
音源	-10.7849
意味で	-10.785
快速	-10.7851
歳の時に	-10.7851
EU	-10.7852
の末	-10.7852
あくまで	-10.7853
するように	-10.7854
起き	-10.7855
の歌	-10.7859
迷	-10.7861
払い	-10.7863
段階で	-10.7864
蒸気	-10.7864
バンク	-10.7865
流域	-10.7865
自体は	-10.7867
羊	-10.7867
働く	-10.7868
食事	-10.787
にとっては	-10.7871
プロモーション	-10.7871
会計	-10.7873
",	-10.7873
装飾	-10.7875
用いられ	-10.7878
鉱	-10.788
務め	-10.7882
ネオ	-10.7882
マイク	-10.7891
起用され	-10.7891
悲	-10.7895
DC	-10.7896
JA	-10.7897
認め	-10.7898
カナ	-10.7899
国連	-10.79
長年	-10.7903
混合	-10.7905
ユーロ	-10.7905
こちら	-10.7905
ハラ	-10.7906
水戸	-10.7906
削	-10.7907
240	-10.7908
立った	-10.7917
わけ	-10.7919
アール	-10.7919
宇都宮	-10.792
ワイド	-10.7922
東京都出身	-10.7922
ちゅう	-10.7922
プラス	-10.7923
東方	-10.7924
摩	-10.7926
低く	-10.7927
褐色	-10.7929
絡	-10.7931
町名	-10.7932
卓	-10.7933
壇	-10.7935
1916	-10.7937
の長男	-10.794
を利用する	-10.794
レート	-10.7942
準優勝	-10.7942
籠	-10.7943
おそらく	-10.7944
セラ	-10.7945
促進	-10.7946
将棋	-10.7947
る事	-10.7948
いん	-10.7948
ヒトラー	-10.7949
アラブ	-10.7949
ca	-10.7951
ませ	-10.7953
勅	-10.7954
甲子園	-10.7955
見える	-10.7956
マイクロ	-10.7956
驚	-10.7956
初めての	-10.7958
られない	-10.7959
衛生	-10.796
1907	-10.796
好きな	-10.7962
マラソン	-10.7962
行事	-10.7963
王国の	-10.7964
ようやく	-10.7968
ast	-10.7969
グラフィック	-10.797
姿を	-10.797
班	-10.7971
天保	-10.7973
皇后	-10.7973
助手	-10.7978
チェコ	-10.7978
連合軍	-10.7981
宝塚	-10.7983
ニャ	-10.7983
Mi	-10.7983
戒	-10.7984
1889	-10.7984
最近	-10.7985
場所に	-10.7985
149	-10.7987
登場した	-10.7989
by	-10.7989
α	-10.7989
ドイツ軍	-10.7991
徳島	-10.7991
決議	-10.7991
ていて	-10.7994
かみ	-10.7994
書店	-10.7994
は当初	-10.7996
現代の	-10.7996
日にかけて	-10.7998
財団	-10.8002
尺	-10.8002
に伴って	-10.8003
当地	-10.8005
が始まり	-10.8006
つい	-10.8007
大分	-10.8012
ラテン語	-10.8013
影響力	-10.8014
MLB	-10.8015
三国	-10.8015
酸素	-10.8017
EP	-10.8021
めて	-10.8022
横須賀	-10.8022
運輸	-10.8023
メタル	-10.8024
PR	-10.8025
さか	-10.8026
を求め	-10.8029
掃	-10.8029
ナポレオン	-10.8031
タイプの	-10.8037
後ろ	-10.8039
の下に	-10.804
と言って	-10.8042
診断	-10.8042
▁1989	-10.8044
ステップ	-10.8046
チー	-10.8049
を打ち	-10.8052
サイクル	-10.8052
カリフォルニア	-10.8053
タッチ	-10.8053
放出	-10.8056
正面	-10.8057
を担当する	-10.8058
やはり	-10.8063
山梨県	-10.8064
乾燥	-10.8066
にわたる	-10.8071
の全	-10.8072
を示し	-10.8073
手を	-10.8075
克	-10.8075
晩	-10.8075
容量	-10.8077
代の	-10.8079
定理	-10.808
『』	-10.8081
國	-10.8083
挟	-10.8084
列車が	-10.8086
衝撃	-10.8086
わり	-10.8087
AA	-10.8089
ることとなった	-10.809
財務	-10.8091
大気	-10.8093
金メダル	-10.8093
芽	-10.8093
の大部分	-10.8095
入れた	-10.8095
騎	-10.8095
ぶん	-10.8097
ディオ	-10.8099
av	-10.81
どこ	-10.8103
量産	-10.8103
135	-10.8106
栄養	-10.8107
▁北	-10.811
世に	-10.811
ton	-10.8111
2%	-10.8112
と対戦	-10.8113
母は	-10.8116
Al	-10.8119
始まり	-10.812
101	-10.8122
東宝	-10.8122
出土	-10.8122
機関車	-10.8123
の弟	-10.8123
呼び	-10.8124
▁Ma	-10.8124
著名な	-10.8124
嵐	-10.8127
ack	-10.8128
観音	-10.8128
ミュー	-10.813
ようと	-10.813
みや	-10.8134
生息	-10.8134
3%	-10.8134
業績	-10.8137
を占める	-10.814
をとる	-10.8141
損害	-10.8141
私は	-10.8141
停留所	-10.8142
幾	-10.8143
放送されていた	-10.8143
研修	-10.8143
した際	-10.8146
被害者	-10.8146
バレー	-10.8147
かもしれない	-10.8148
、1988	-10.815
認可	-10.815
戦国時代	-10.815
元の	-10.8152
合わせた	-10.8152
に住む	-10.8152
賜	-10.8155
変わり	-10.8155
直通	-10.8156
天然	-10.8159
庭園	-10.8163
戦場	-10.8166
、1987	-10.8167
に本社を置く	-10.8167
結成された	-10.8167
ong	-10.8167
トレード	-10.8169
が担当	-10.8171
を利用した	-10.8172
位となった	-10.8173
ボーン	-10.8175
在学中	-10.8176
国内の	-10.818
工作	-10.8181
戦士	-10.8181
通貨	-10.8188
学研究科	-10.8189
澄	-10.8189
とは異なる	-10.8191
論理	-10.8192
NBA	-10.8192
270	-10.8192
むしろ	-10.8193
ッキー	-10.8193
態度	-10.8193
勤め	-10.8196
青山	-10.8198
線は	-10.8199
動員	-10.8203
だん	-10.8205
春日	-10.8205
丈	-10.8206
▁g	-10.8207
中には	-10.8209
提携	-10.821
。2001	-10.8211
の攻撃	-10.8214
運河	-10.8215
えい	-10.8216
稀	-10.8218
が始まる	-10.822
ep	-10.8223
を提供する	-10.8224
フト	-10.8225
クルー	-10.8227
当日	-10.8227
で初	-10.823
ーヌ	-10.8231
伝えられ	-10.8232
An	-10.8233
ンド	-10.8233
されているが	-10.8237
名義で	-10.8238
創造	-10.8239
みられる	-10.824
amp	-10.8242
ビュ	-10.8244
1905	-10.8244
ナウ	-10.8247
十二	-10.825
日本国内	-10.8255
現れた	-10.8255
付近に	-10.8258
黒人	-10.8259
軌	-10.8259
だけの	-10.8265
ブルース	-10.8266
を加えた	-10.8266
比例	-10.8267
ショート	-10.8267
げん	-10.8267
互いに	-10.8268
引用	-10.8269
循環	-10.8269
ことが出来る	-10.827
状に	-10.8271
考案	-10.8271
有機	-10.8274
中華民国	-10.8277
決め	-10.8278
王の	-10.828
風景	-10.8281
会話	-10.8281
栃木県	-10.8282
運賃	-10.8283
に必要な	-10.8283
を一	-10.8286
報告書	-10.8286
のみである	-10.8289
隔	-10.8289
黄金	-10.829
飛行機	-10.829
―	-10.8291
▁Y	-10.8293
は以下の	-10.8294
濃度	-10.8296
キャッチ	-10.83
キス	-10.83
テレビ朝日	-10.8302
上がる	-10.8302
拓	-10.8302
ka	-10.8304
滋賀県	-10.8304
サッカー選手	-10.8304
何か	-10.8304
クレジット	-10.8304
審判	-10.8304
上京	-10.8306
力が	-10.831
ポンド	-10.831
go	-10.8313
エンディング	-10.8313
考	-10.8313
トラブル	-10.8315
167	-10.8315
対決	-10.8315
アンドレ	-10.8316
するのは	-10.8317
りょう	-10.8318
直径	-10.8319
▁Z	-10.8319
保安	-10.8321
止	-10.8322
編纂	-10.8331
変動	-10.8332
1.5	-10.8336
朝日	-10.8338
に引き	-10.8338
モンスター	-10.8339
事件の	-10.8339
が一般的	-10.8342
の不	-10.8342
達は	-10.8344
横断	-10.8347
享	-10.8347
独特の	-10.8347
三井	-10.835
宮廷	-10.835
逃亡	-10.8351
廃車	-10.8353
気筒	-10.8354
駆	-10.8354
学名	-10.8356
周年記念	-10.8357
日常	-10.836
を歴任	-10.836
開催される	-10.836
5,000	-10.836
映画監督	-10.8361
午前	-10.8362
さき	-10.8363
征服	-10.8364
説得	-10.8365
艦長	-10.8365
ルズ	-10.8366
伏	-10.8367
々と	-10.8368
四郎	-10.8369
の主要	-10.837
曲を	-10.8371
ラジオ番組	-10.8374
No	-10.8375
換	-10.8378
の北	-10.838
駅で	-10.8383
得意	-10.8385
領主	-10.8388
リウム	-10.8395
猿	-10.8396
プレート	-10.8396
消え	-10.8398
書いた	-10.8399
蓋	-10.8401
に参戦	-10.8401
放送されている	-10.8402
順に	-10.8403
物資	-10.8408
近くに	-10.8409
悪魔	-10.841
しようとした	-10.8412
tra	-10.8413
と表記	-10.8414
は無い	-10.8415
続けている	-10.8417
巨大	-10.8419
託	-10.8419
と呼ばれていた	-10.8419
駐車場	-10.8421
スラ	-10.8423
周り	-10.8423
バレエ	-10.8426
渡し	-10.8427
活躍した	-10.8427
147	-10.8427
頻繁に	-10.8427
じゃ	-10.8428
をきっかけに	-10.8428
婦	-10.843
開拓	-10.8433
琉球	-10.8433
枚の	-10.8435
番線	-10.8436
学問	-10.8436
1909	-10.8436
富山県	-10.8437
課長	-10.8437
衰退	-10.8437
作目	-10.8438
設	-10.8438
侵入	-10.844
吹き	-10.844
フリ	-10.8444
論争	-10.8447
必ずしも	-10.8447
公国	-10.8447
ことによって	-10.8447
甲斐	-10.8449
。2019	-10.845
チア	-10.845
コンテンツ	-10.8451
次のように	-10.8451
完全な	-10.8454
の舞台	-10.8454
高田	-10.8455
独占	-10.8456
わる	-10.8457
時間が	-10.8459
を目指し	-10.846
科の	-10.846
始まった	-10.8461
を設置し	-10.8461
放送の	-10.8462
るもの	-10.8463
ダイヤ	-10.8463
金を	-10.8463
年までは	-10.8464
市街	-10.8465
送り	-10.8466
学位	-10.8467
蛇	-10.8469
最初	-10.847
を含めた	-10.847
北陸	-10.8471
墓地	-10.8472
してから	-10.8473
才能	-10.8474
曲が	-10.8474
マール	-10.8476
▁l	-10.8476
現存	-10.8477
既存の	-10.8477
入った	-10.8478
陥落	-10.8482
が決定	-10.8482
南海	-10.8482
ときは	-10.8482
武士	-10.8485
CE	-10.8486
た後	-10.8487
、1985	-10.8488
種目	-10.8491
に所属	-10.8493
サンフランシスコ	-10.8495
歴史的	-10.8495
ジャクソン	-10.8497
戦術	-10.8505
しまう	-10.8505
を挙げた	-10.8506
集め	-10.8506
忘れ	-10.8507
泳	-10.8511
日目	-10.8511
トヨタ	-10.8511
の自由	-10.8512
▁三	-10.8514
文化財	-10.8517
たま	-10.8517
同月	-10.8518
▁12	-10.8519
年ぶりの	-10.8522
ome	-10.8523
願い	-10.8523
保管	-10.8525
提唱	-10.8525
くん	-10.8529
』("	-10.853
予測	-10.853
▁THE	-10.8532
しょうがっこう	-10.8533
ッジ	-10.8534
を採用した	-10.8534
の運行	-10.8534
市川	-10.8538
るべき	-10.8539
村上	-10.8539
総裁	-10.854
在位	-10.8541
代表として	-10.8542
としていた	-10.8542
以下のような	-10.8543
考え方	-10.8543
ベリ	-10.8544
作中	-10.8545
からである	-10.8546
、1986	-10.8548
附属	-10.855
の利用	-10.8556
ギア	-10.8559
融合	-10.856
ズム	-10.8561
メタ	-10.8563
ロッ	-10.8565
エール	-10.8566
8%	-10.8567
へ向かう	-10.8567
大衆	-10.8567
レーション	-10.8568
かし	-10.857
を開始し	-10.8575
ウェブ	-10.8577
プレーオフ	-10.858
。1990	-10.8581
平方マイル	-10.8582
ゾーン	-10.8585
といえる	-10.8586
に立ち	-10.8587
通常は	-10.8588
に用いられる	-10.8589
限界	-10.8592
第四	-10.8593
白人	-10.8594
中断	-10.8594
童	-10.8595
ou	-10.8596
▁その他	-10.8597
ジェン	-10.8598
遇	-10.8598
ee	-10.8599
会津	-10.8599
レム	-10.8599
を見た	-10.8601
見せ	-10.8607
曲の	-10.8607
招待	-10.8607
走り	-10.8609
夫妻	-10.8609
はそれぞれ	-10.861
アイランド	-10.8613
107	-10.8614
大量	-10.8614
サウルス	-10.8614
*	-10.8615
の距離	-10.8616
コントロール	-10.8616
チェル	-10.8616
映画の	-10.8617
ke	-10.862
激しく	-10.862
の成績	-10.8623
数え	-10.8626
原子力	-10.8626
マックス	-10.8627
進学	-10.8627
を起こした	-10.8628
経済学	-10.8629
アルコール	-10.8631
ance	-10.8631
触	-10.8632
抜	-10.8633
1906	-10.8634
査	-10.8636
ギル	-10.8643
ンは	-10.8643
されるが	-10.8644
トライ	-10.8645
増大	-10.8647
側が	-10.8647
法案	-10.8648
の最	-10.8649
con	-10.865
キャンペーン	-10.865
本名は	-10.8653
ヤマ	-10.8653
綾	-10.8655
一体	-10.8655
任期	-10.8656
次々と	-10.8657
講演	-10.8658
の首都	-10.8659
ローン	-10.8662
の言葉	-10.8666
ドゥー	-10.8666
ボイ	-10.8668
的で	-10.867
あげ	-10.8672
版が	-10.8674
を受賞	-10.8674
アプリ	-10.8675
NG	-10.8676
はまだ	-10.8676
中でも	-10.8678
戦死	-10.8679
コンテスト	-10.8679
渡り	-10.868
の部分	-10.868
城の	-10.8681
たちに	-10.8683
東京大学	-10.8683
上級	-10.8683
ルーム	-10.8684
きん	-10.8684
年春	-10.8685
この間	-10.8686
che	-10.8689
が発売された	-10.8691
だったため	-10.8692
開放	-10.8694
を出し	-10.8695
民国	-10.8696
ニョ	-10.8697
同時期に	-10.8698
山岳	-10.8701
魏	-10.8701
大西洋	-10.8702
アレンジ	-10.8703
緩	-10.8703
歌う	-10.8703
ヨハン	-10.8703
の立場	-10.8706
文章	-10.8707
秋田県	-10.8709
リティ	-10.8709
阪急	-10.871
ばら	-10.8714
Te	-10.8715
ノフ	-10.8716
任意の	-10.8716
に対応	-10.8717
年ぶり	-10.8717
淵	-10.8718
著作権	-10.872
ギュ	-10.8721
とも呼ばれ	-10.8721
鎖	-10.8722
漫画家	-10.8722
。<	-10.8726
Web	-10.8729
周期	-10.8735
で活躍	-10.8736
更	-10.8737
モンド	-10.8738
牽引	-10.8739
車線	-10.8739
フロー	-10.8743
上がった	-10.8744
捉え	-10.8747
7%	-10.8747
合戦	-10.8747
活発	-10.875
せた	-10.8751
高山	-10.8751
努力	-10.8754
タクシー	-10.8754
AAA	-10.8756
との間で	-10.8756
ユナイテッド	-10.876
HD	-10.8761
徳島県	-10.8761
請	-10.8763
戦の	-10.8766
に渡り	-10.8766
倒れ	-10.8771
アダム	-10.8773
イギリス軍	-10.8773
星の	-10.8774
嫁	-10.8776
が中心	-10.8777
ブス	-10.8778
隅	-10.8779
終点	-10.878
Pa	-10.878
特典	-10.8783
不安	-10.8786
ロマン	-10.8786
心理学	-10.8786
ルカ	-10.879
大坂	-10.879
ヒロイン	-10.8791
兼任	-10.8793
辻	-10.8793
ga	-10.8795
▁Li	-10.8796
エリザベス	-10.8797
たら	-10.8798
ime	-10.8802
黒い	-10.8802
を起こす	-10.8803
ラジ	-10.8804
留学	-10.8805
実際	-10.8808
版では	-10.881
ャ	-10.8811
定数	-10.8815
当主	-10.8818
携	-10.8822
が発生した	-10.8824
を主	-10.8827
明け	-10.8828
埋	-10.8828
命中	-10.883
勝負	-10.883
堤	-10.8832
離れ	-10.8833
を形成する	-10.8833
ジョンソン	-10.8834
犯人	-10.8836
RPG	-10.8836
車は	-10.8839
場合に	-10.884
売り上げ	-10.8843
南方	-10.8844
飛行場	-10.8846
のデザイン	-10.8848
兆	-10.8848
愛媛県	-10.8848
ng	-10.8854
Sp	-10.8855
▁15	-10.8857
りゅう	-10.8858
EL	-10.8859
といい	-10.8859
隊長	-10.886
バウ	-10.8861
エロ	-10.8863
実践	-10.8863
参考	-10.8863
セミ	-10.8864
依存	-10.8866
南アフリカ	-10.887
ba	-10.887
打ち上げ	-10.8871
iv	-10.8871
生放送	-10.8874
タリ	-10.8875
大韓民国	-10.8875
の高	-10.8876
コマ	-10.8876
の最初の	-10.8876
軟	-10.8876
奈良県	-10.8877
書記	-10.8878
発掘	-10.888
ったり	-10.8881
の代表	-10.8883
スプリング	-10.8885
大宮	-10.8886
参加している	-10.8887
けんどう	-10.8887
接近	-10.8888
衆議院議員	-10.889
研究会	-10.889
寺の	-10.8892
ミラー	-10.8892
編入	-10.8893
テラ	-10.8894
才	-10.8896
を搭載した	-10.8897
4%	-10.8897
TR	-10.8898
を採用し	-10.8898
応募	-10.8899
山崎	-10.89
SL	-10.8901
派生	-10.8903
彼を	-10.8906
be	-10.8906
にかけての	-10.8908
ビーチ	-10.8908
岡崎	-10.891
製作された	-10.8911
前面	-10.8911
前方	-10.8911
年末	-10.8913
ラスト	-10.8914
フィート	-10.8915
橋本	-10.8916
梨	-10.8916
DNA	-10.8916
キロメートル	-10.8918
オリコン	-10.8918
ストー	-10.8918
6%	-10.8923
品種	-10.8923
最後	-10.8925
討ち	-10.8925
を決め	-10.8927
はほぼ	-10.8928
限りで	-10.8929
を中心とする	-10.8931
選考	-10.8931
主宰	-10.8931
に進出	-10.8931
オスマン帝国	-10.8932
附	-10.8932
内では	-10.8933
福井	-10.8937
興味	-10.8938
貧	-10.8938
山頂	-10.894
の平均	-10.8944
唱	-10.8944
見て	-10.8946
記述する	-10.8947
就職	-10.8948
が強く	-10.895
それから	-10.895
隣接する	-10.8952
使用され	-10.8952
va	-10.8952
こともできる	-10.8952
を見る	-10.8957
から約	-10.8958
佐々木	-10.896
競走馬	-10.8961
今回	-10.8961
単純	-10.8961
に参加する	-10.8961
、1984	-10.8962
探偵	-10.8965
この場合	-10.8966
割り	-10.8966
複雑な	-10.8967
小説家	-10.8968
経由	-10.8968
鳳	-10.8969
落選	-10.8972
挙げられ	-10.8972
つける	-10.8973
ァ	-10.8973
は再び	-10.8976
近年では	-10.8977
ルーマニア	-10.8978
ew	-10.8978
みつ	-10.898
1890	-10.898
つけた	-10.8982
感覚	-10.8985
庵	-10.8987
駅は	-10.899
書かれ	-10.899
アラン	-10.8991
時刻	-10.8993
従軍	-10.8994
台風	-10.8994
日本に	-10.8995
ためである	-10.8997
に行く	-10.8998
山形	-10.8998
変身	-10.8998
同意	-10.8999
サイン	-10.8999
を務めている	-10.9004
グー	-10.9006
モント	-10.9007
サンド	-10.9008
終戦	-10.901
the	-10.901
重賞	-10.9011
ホールディングス	-10.9014
巧	-10.9016
上田	-10.9018
を選択	-10.9018
DJ	-10.9019
に入ると	-10.9021
怒り	-10.9021
トイレ	-10.9022
開け	-10.9024
の監督	-10.9025
採用された	-10.9025
ていたため	-10.9028
正式な	-10.9029
液体	-10.9032
修復	-10.9037
南部の	-10.9038
圧縮	-10.9039
学校の	-10.9039
長編	-10.904
と異なり	-10.904
障	-10.904
の概念	-10.9043
あん	-10.9044
チェーン	-10.9045
闘争	-10.9046
選手団	-10.9047
視点	-10.905
長距離	-10.905
短期大学	-10.9051
HA	-10.9051
寄付	-10.9052
女性の	-10.9053
スン	-10.9053
電池	-10.9053
伊達	-10.9055
1904	-10.9056
ber	-10.9057
成田	-10.9058
フェスティバル	-10.9058
本種	-10.9058
哨戒	-10.9059
恒星	-10.9059
NI	-10.9059
後には	-10.9059
と言い	-10.9061
Co	-10.9064
を基に	-10.9065
専門家	-10.9067
ショウ	-10.9068
チャートで	-10.9069
死んだ	-10.9072
間隔	-10.9073
刺激	-10.9074
を表明	-10.9074
溶	-10.9074
されたため	-10.9075
基本的な	-10.9076
105	-10.9076
end	-10.9076
大野	-10.9077
気温	-10.9081
の導入	-10.9084
外観	-10.9086
内戦	-10.9087
ねん	-10.9089
闇	-10.909
挙げ	-10.909
を残した	-10.9091
救助	-10.9092
山陽	-10.9093
経済的	-10.9094
ps	-10.9094
という名称	-10.9095
が発生する	-10.9096
確実	-10.9096
噂	-10.9097
的である	-10.9097
斗	-10.9098
することになる	-10.91
ウェー	-10.91
パック	-10.9104
品質	-10.9107
ster	-10.9108
ジア	-10.9109
配布	-10.9109
を搭載し	-10.911
コマンド	-10.9111
目を	-10.9111
ヒー	-10.9113
しなければならない	-10.9114
相対	-10.9119
司教	-10.9119
懸念	-10.9123
武蔵	-10.9124
励	-10.9124
の情報	-10.9125
ことができ	-10.9125
越え	-10.9125
ec	-10.9126
カンパニー	-10.9126
失点	-10.9127
ブルガリア	-10.9127
石川県	-10.913
近江	-10.9131
不正	-10.9132
懸	-10.9132
何度も	-10.9133
打者	-10.9134
操	-10.9135
ens	-10.9137
上杉	-10.9137
の人々	-10.9139
騒動	-10.9139
くら	-10.9143
模	-10.9146
を求めた	-10.915
ランプ	-10.9152
の支配	-10.9153
ウェブサイト	-10.9153
上げる	-10.9156
を図る	-10.9157
交易	-10.9158
グラフ	-10.9159
獄	-10.9159
成人	-10.9159
建立	-10.916
従業員	-10.9161
でデビュー	-10.9161
チベット	-10.9162
スカウト	-10.9168
物理学	-10.9169
出演した	-10.917
ハウ	-10.9172
のみの	-10.9173
にくい	-10.9173
を続けた	-10.9174
国防	-10.9175
くり	-10.9176
有料	-10.9176
入場	-10.9176
ニル	-10.9179
VI	-10.9179
道を	-10.9181
責任者	-10.9182
ボウ	-10.9184
に渡って	-10.9186
の間の	-10.9186
の流れ	-10.9188
美濃	-10.9188
島に	-10.919
連合国	-10.919
ッグ	-10.919
盗塁	-10.9194
恋人	-10.9197
放射	-10.9198
質問	-10.9198
下記の	-10.9198
ないように	-10.9199
竣工	-10.9199
へ移籍	-10.9199
所在	-10.92
近畿	-10.9201
総会	-10.9201
河口	-10.9202
優勝した	-10.9203
講談社	-10.9204
又	-10.9204
ギン	-10.9204
水上	-10.9205
109	-10.9205
スコア	-10.9206
モハ	-10.9206
たのは	-10.9206
結論	-10.9207
先生	-10.9209
パッ	-10.9209
メリ	-10.921
に属し	-10.9211
キューバ	-10.9211
を持た	-10.9211
命名された	-10.9213
後継	-10.9213
作った	-10.9215
塗	-10.9216
に存在した	-10.9218
ておらず	-10.9218
全面	-10.922
描かれた	-10.9222
大分県	-10.9225
保証	-10.9225
が無い	-10.9227
ジオ	-10.9228
符	-10.9228
ニカ	-10.9229
ガリ	-10.9235
共和党	-10.9236
試作	-10.9237
は通常	-10.9238
処刑	-10.9238
丘陵	-10.9239
オプション	-10.924
リーは	-10.924
結ばれ	-10.924
付いた	-10.9246
米軍	-10.9246
たという	-10.9246
版は	-10.9248
解雇	-10.9248
クリスマス	-10.925
の生活	-10.925
。1999	-10.9251
ft	-10.9252
一切	-10.9252
引退後	-10.9255
わら	-10.9256
▁1988	-10.9256
アイス	-10.926
検察	-10.9265
報じられ	-10.9265
化石	-10.9265
ドキュメンタリー	-10.9266
はこれを	-10.9266
HE	-10.9268
バラエティ番組	-10.9268
はっきり	-10.927
小倉	-10.9271
何らかの	-10.9272
モンテ	-10.9272
敷設	-10.9273
ボーナス	-10.9274
を避け	-10.9277
カロ	-10.9277
とおり	-10.9279
バッ	-10.9279
容易に	-10.928
を掲げ	-10.9281
胡	-10.9285
取り上げられ	-10.9286
ぼう	-10.9286
TKO	-10.9288
を終えた	-10.9291
の後継	-10.9292
近年は	-10.9295
このほか	-10.9296
改装	-10.9303
切り替え	-10.9306
ンダ	-10.9309
提示	-10.9311
流れる	-10.9311
さと	-10.9312
日々	-10.9312
codice	-10.9313
視聴者	-10.9314
町立	-10.9314
する必要がある	-10.9314
縄	-10.9316
の役割	-10.9317
タナ	-10.9317
電気鉄道	-10.9318
ai	-10.9319
授	-10.932
萩	-10.932
1903	-10.932
に達した	-10.9321
▁1960	-10.9322
さわ	-10.9323
New	-10.9325
以下に	-10.9325
長崎県	-10.9327
擬	-10.933
前線	-10.933
実力	-10.9331
朝廷	-10.9332
の番組	-10.9333
ファンタジー	-10.9337
入口	-10.9337
特殊な	-10.9337
旧制	-10.9338
ea	-10.9339
に再	-10.9339
の両	-10.9339
に挑戦	-10.9341
互	-10.9342
交差	-10.9342
遷	-10.9343
どちら	-10.9346
建国	-10.9348
着用	-10.935
電源	-10.935
と考え	-10.9352
涙	-10.9355
の整備	-10.9356
カッ	-10.9356
第一次	-10.9356
エクス	-10.9359
組み合わせ	-10.9361
抱	-10.9364
福音	-10.9365
の状態	-10.9365
ベクトル	-10.9366
▁1987	-10.9367
加えて	-10.9368
自衛隊	-10.9368
前から	-10.9371
通勤	-10.9371
(,	-10.9375
零	-10.9378
空中	-10.9379
惑	-10.9379
に成功した	-10.938
人権	-10.9381
バランス	-10.9386
発生する	-10.9387
探検	-10.9389
事項	-10.9389
チョウ	-10.939
変わる	-10.939
兄の	-10.9391
小川	-10.9392
大量の	-10.9392
調達	-10.9393
放送開始	-10.9395
登場人物	-10.9396
直前に	-10.9398
期生	-10.9401
その間	-10.9401
後継者	-10.9403
に追い	-10.9405
世紀末	-10.9407
時台	-10.9408
▁ただし	-10.9409
革	-10.9409
漁業	-10.9411
別れ	-10.9411
方に	-10.9412
もいる	-10.9415
と考えられ	-10.9416
規模の	-10.9418
のちの	-10.9421
の多い	-10.9421
ヴィルヘルム	-10.9421
わせ	-10.9422
が強い	-10.9424
が設置された	-10.9426
カウ	-10.9427
地域で	-10.9428
を扱う	-10.943
CR	-10.9431
代理	-10.9431
ないと	-10.9432
外側	-10.9434
を継いだ	-10.9434
協議	-10.9435
ix	-10.9435
付けられた	-10.9436
田町	-10.9439
チャレンジ	-10.9439
党の	-10.9441
ord	-10.9444
MF	-10.9446
うちに	-10.9447
教会の	-10.9447
ョ	-10.9449
を有し	-10.9452
コーン	-10.9453
シリ	-10.9456
De	-10.9456
修行	-10.9457
ダウンロード	-10.9458
ことはできない	-10.9459
入門	-10.9468
待ち	-10.9468
模型	-10.9469
ミール	-10.947
シュート	-10.9471
出産	-10.9472
出撃	-10.9473
を発売	-10.9473
の長さ	-10.9475
踊り	-10.9475
世紀後半	-10.9475
水路	-10.9476
、1983	-10.9478
島津	-10.9478
採用され	-10.948
モチーフ	-10.9482
証券	-10.9482
砲撃	-10.9483
ジャーナリスト	-10.9483
期間中	-10.9486
見え	-10.9489
等を	-10.9491
騎士	-10.9497
理想	-10.9499
と言った	-10.9499
がく	-10.9499
存在した	-10.95
340	-10.95
の主	-10.9501
想定	-10.9501
代々	-10.9503
哉	-10.9503
スロー	-10.9505
函館	-10.9505
刈	-10.9509
支配下	-10.951
と述べ	-10.9511
傾	-10.9515
下流	-10.9515
創設された	-10.9516
本格的な	-10.9517
叔父	-10.9518
起こった	-10.9518
の基礎	-10.9518
ことや	-10.9519
履	-10.9519
司令	-10.952
▁Com	-10.9521
オオ	-10.9522
ass	-10.9523
刊行された	-10.9525
届け	-10.9528
舷	-10.9528
ケーブル	-10.9528
シアター	-10.9531
都合	-10.9531
類の	-10.9531
苗	-10.9532
ミッド	-10.9533
に関わる	-10.9533
一緒に	-10.9534
代藩主	-10.9535
参加者	-10.9535
冒頭	-10.9538
出演者	-10.9541
PE	-10.9543
山形県	-10.9543
、1982	-10.9546
と結婚した	-10.9549
キャスター	-10.955
腐	-10.955
起点	-10.9552
国外	-10.9552
幅広い	-10.9553
おき	-10.9553
大会では	-10.9555
日曜	-10.9555
加速	-10.9556
クロアチア	-10.9557
建築家	-10.9557
コンクール	-10.9558
に見られる	-10.9558
というもの	-10.9559
撮	-10.956
昆虫	-10.956
られており	-10.956
を呼び	-10.956
年秋	-10.956
陶	-10.9564
発展した	-10.9569
その中で	-10.957
いった	-10.9572
プリンス	-10.9574
救援	-10.9575
結果として	-10.9575
エム	-10.9576
内側	-10.9576
公爵	-10.9576
校長	-10.9577
粘	-10.9578
衣装	-10.9578
は全く	-10.9581
信濃	-10.9584
に所在する	-10.9584
の色	-10.9584
炭素	-10.9586
中隊	-10.9586
を浴び	-10.9589
ッキング	-10.9591
代表作	-10.9593
警戒	-10.9594
ヘー	-10.9594
ぜん	-10.9594
が少ない	-10.9596
ミュンヘン	-10.9596
-15	-10.9599
続き	-10.9599
▁さらに	-10.9599
の両方	-10.96
、1950	-10.9601
嗣	-10.9602
観光客	-10.9603
OP	-10.9604
などでは	-10.9605
悟	-10.9605
ともいう	-10.9606
で放送されていた	-10.9608
アメリカで	-10.9608
ハーン	-10.9608
IM	-10.961
返し	-10.9612
摂	-10.9613
アメリカ海軍	-10.9614
▁以下の	-10.9614
を発表し	-10.9615
視聴率	-10.9615
猪	-10.9615
1500	-10.9618
1902	-10.9618
後任	-10.9619
を使い	-10.9619
参謀	-10.9619
隊員	-10.9619
いなかった	-10.962
番目に	-10.9621
釣り	-10.9621
必	-10.9622
見た	-10.9622
初登場	-10.9622
▁エ	-10.9626
キック	-10.9627
高校生	-10.9628
部隊は	-10.9628
グラム	-10.9629
淡	-10.9629
ようとした	-10.9629
年目	-10.9633
人種	-10.9634
境内	-10.9634
を訪れ	-10.9636
発足した	-10.9638
吉野	-10.9643
両国	-10.9644
部下	-10.9644
になること	-10.9646
冬季	-10.9647
りん	-10.9648
『"	-10.9651
各地で	-10.9651
リーズ	-10.9652
生まれた	-10.9654
販	-10.9654
知られ	-10.9655
直後の	-10.9657
に進学	-10.9658
左翼	-10.9658
を持たない	-10.9659
ob	-10.9659
曲線	-10.966
簡易	-10.9664
マニ	-10.9665
-17	-10.9665
発売されている	-10.9665
篤	-10.9666
手掛け	-10.9667
無く	-10.9668
統制	-10.9669
sion	-10.967
世紀初頭	-10.967
鍋	-10.967
捨て	-10.967
ようである	-10.9672
アナログ	-10.9673
麗	-10.9673
9%	-10.9673
企業の	-10.9674
ょ	-10.9676
の機能	-10.9676
ジョーンズ	-10.9677
首位	-10.9678
文芸	-10.9679
城主	-10.968
so	-10.9682
鐘	-10.9682
シネマ	-10.9684
保健	-10.9685
るか	-10.9686
明治時代	-10.9688
レーシング	-10.969
を形成し	-10.969
変形	-10.969
ary	-10.9691
置き換え	-10.9691
劇中	-10.9691
DD	-10.9691
であることから	-10.9691
吐	-10.9691
踏	-10.9692
爆撃	-10.9692
数十	-10.9693
を取って	-10.9695
イスラム	-10.9696
利用できる	-10.9697
に及ぶ	-10.9697
桑	-10.9698
ものに	-10.97
絶滅	-10.97
遣	-10.9701
遊び	-10.9702
カフェ	-10.9702
つつある	-10.9703
耐	-10.9704
虚	-10.9704
EE	-10.9705
リトアニア	-10.9705
アミ	-10.9707
のもとで	-10.9708
翌年の	-10.9708
土曜日	-10.9709
成立した	-10.9709
実業家	-10.971
王立	-10.9712
折り	-10.9712
の花	-10.9712
側から	-10.9718
イースト	-10.9718
かせ	-10.9722
と同様の	-10.9723
オーナー	-10.9726
パネル	-10.9726
レク	-10.9728
をあげ	-10.9728
珍しい	-10.9728
gra	-10.9728
長らく	-10.9729
▁1986	-10.973
▁Pro	-10.973
所蔵	-10.9731
ラフ	-10.9734
に移動	-10.9734
余り	-10.9738
魅力	-10.974
で生まれた	-10.9741
の母	-10.9741
車種	-10.9746
融	-10.9748
レーン	-10.975
ニール	-10.9751
ばん	-10.9752
La	-10.9752
出演している	-10.9756
時期に	-10.9757
閉じ	-10.9758
リアル	-10.9758
地中海	-10.9762
年連続	-10.9763
階段	-10.9764
ウォーター	-10.9765
トウ	-10.9765
駅まで	-10.9765
いま	-10.9766
メトロ	-10.9767
寛永	-10.9768
二次	-10.9769
炉	-10.9771
親王	-10.9771
せずに	-10.9774
が大きい	-10.9774
大日本	-10.9775
馬場	-10.9778
ty	-10.9779
岬	-10.9782
に達し	-10.9783
を集め	-10.9783
する形で	-10.9785
オイ	-10.9788
前者	-10.9789
技術者	-10.9792
ブレイ	-10.9792
最上	-10.9792
謙	-10.9793
ってくる	-10.9794
似た	-10.9796
出た	-10.9797
抗争	-10.9797
GE	-10.9798
第二次	-10.9798
責	-10.9799
」・「	-10.98
はあまり	-10.9801
幼稚園	-10.9801
織田	-10.9801
ベール	-10.9803
スが	-10.9803
ys	-10.9805
トリア	-10.9806
甥	-10.9807
チリ	-10.9807
仕掛け	-10.981
は他の	-10.9812
参入	-10.9813
容易	-10.9813
昇進	-10.9817
嶺	-10.9817
ヴァイオリン	-10.9818
公社	-10.9819
ゃ	-10.9819
バルト	-10.982
企	-10.9821
をかけ	-10.9821
を使用し	-10.9822
著者	-10.9825
大島	-10.9825
が可能である	-10.9826
洪水	-10.9827
中川	-10.9827
▁現在は	-10.9828
機を	-10.9828
近郊	-10.9828
口径	-10.9829
氏が	-10.9831
▁11	-10.9831
-20	-10.9831
シャルル	-10.9833
特集	-10.9834
見られた	-10.9836
▁Ar	-10.9836
の技術	-10.9836
登場している	-10.9837
進歩	-10.9838
を受け入れ	-10.9839
身分	-10.9839
人々が	-10.9841
考慮	-10.9843
を破り	-10.9844
の一部を	-10.9844
ぴ	-10.9845
の路線	-10.9847
影響を与え	-10.9847
改編	-10.985
元禄	-10.9851
エンタテインメント	-10.9854
新型	-10.9856
しようとする	-10.9856
是	-10.9856
ところで	-10.9857
現れる	-10.9858
の運営	-10.9859
を学び	-10.9862
YO	-10.9865
-11	-10.9866
分散	-10.9866
の子孫	-10.9869
条例	-10.9875
しかも	-10.9878
本格的に	-10.9881
▁カ	-10.9884
沿いに	-10.9885
物理	-10.9886
に次いで	-10.9888
浴	-10.9889
酷	-10.989
ブロン	-10.9891
逃	-10.9895
定める	-10.9895
ハッ	-10.9897
我々	-10.9899
脈	-10.99
釜	-10.9902
ダブルス	-10.9904
を教え	-10.9904
生物学	-10.9905
水準	-10.9908
検出	-10.9909
勧め	-10.9909
年代以降	-10.991
災	-10.991
ペリ	-10.9913
グレー	-10.9914
オレ	-10.9915
。1980	-10.9917
ヒン	-10.9918
車内	-10.9919
補佐	-10.9919
存在している	-10.992
三河	-10.992
進んだ	-10.992
秘書	-10.9921
シーズンの	-10.9921
五輪	-10.9922
か所	-10.9924
アシスタント	-10.9926
ドリーム	-10.9927
間もなく	-10.9928
は現在	-10.9928
排除	-10.9929
不可	-10.9931
も含め	-10.9931
▁Di	-10.9931
団地	-10.9932
これによって	-10.9932
の称号	-10.9935
ムシ	-10.9937
映画化	-10.9938
改めて	-10.9939
選ばれた	-10.9945
の変更	-10.9949
残る	-10.995
が開始され	-10.995
139	-10.995
イチ	-10.9952
準決勝	-10.9953
みの	-10.9953
ブリー	-10.9953
行われていた	-10.9956
細川	-10.9957
していること	-10.9958
は不明である	-10.9961
近年の	-10.9961
諏訪	-10.9962
大人	-10.9962
月にかけて	-10.9962
個別	-10.9963
信用	-10.9963
伝わる	-10.9965
tor	-10.9965
オレンジ	-10.9969
を通る	-10.997
変更された	-10.9971
ヴォー	-10.9972
家が	-10.9973
愛称は	-10.9974
を学ぶ	-10.9977
隊の	-10.9978
に仕え	-10.998
の活躍	-10.998
学んだ	-10.9981
介入	-10.9982
続いた	-10.9983
僅か	-10.9983
スプ	-10.9984
▁1985	-10.9985
悩	-10.9985
1898	-10.9985
クール	-10.9986
たく	-10.9987
演説	-10.9988
活性化	-10.999
優秀	-10.999
名誉教授	-10.9991
がこの	-10.9992
ロックバンド	-10.9994
検索	-10.9994
中国語	-10.9997
オラ	-10.9997
に昇格	-10.9997
pro	-10.9998
を受賞した	-10.9998
北西部	-10.9999
とはいえ	-11
烏	-11.0001
以来の	-11.0003
臨床	-11.0006
平面	-11.0007
単語	-11.0007
船体	-11.0007
装着	-11.0007
▁n	-11.0007
当初から	-11.0008
存在していた	-11.0008
相手の	-11.0008
町村	-11.0011
客車	-11.0014
脚本家	-11.0015
食料	-11.0015
キシ	-11.0016
借	-11.0017
であって	-11.0017
求め	-11.0017
タム	-11.0018
と一緒に	-11.0019
出され	-11.0019
はこれ	-11.002
マイナー	-11.0022
1901	-11.0022
ターボ	-11.0022
を投げ	-11.0023
ベッ	-11.0023
識	-11.0025
GM	-11.0026
飲	-11.0026
歌唱	-11.0027
リバー	-11.0028
結晶	-11.0029
2,000	-11.003
後退	-11.0031
息子の	-11.0032
王位	-11.0033
韓国の	-11.0036
述べている	-11.0037
緑色	-11.0037
さくら	-11.0038
アリス	-11.0041
、1972	-11.0045
将校	-11.0048
▁FIFA	-11.0051
ear	-11.0051
変化する	-11.0052
回大会	-11.0052
を挙げる	-11.0054
ビング	-11.0058
鈴	-11.0058
れん	-11.0058
をもとに	-11.0059
松竹	-11.006
マンは	-11.0061
の動き	-11.0061
引退した	-11.0061
の目	-11.0062
影響を与えた	-11.0062
が認められ	-11.0063
先輩	-11.0065
号の	-11.0065
坪	-11.0067
に対応する	-11.0068
住み	-11.007
おく	-11.0073
変わった	-11.0074
繊維	-11.0075
沈没	-11.0075
儀式	-11.0076
ストップ	-11.008
区画	-11.0081
駆け	-11.0082
なっていた	-11.0082
恭	-11.0083
初となる	-11.0084
瀬戸	-11.0086
ショック	-11.0088
戦争の	-11.009
現行	-11.0091
にちなんで	-11.0091
ニク	-11.0093
の境界	-11.0094
建造物	-11.0095
フジ	-11.0095
ゼー	-11.0095
改札	-11.0096
作品で	-11.0096
を用い	-11.0096
但し	-11.0097
車両の	-11.0098
三浦	-11.0099
実在	-11.01
の設置	-11.0101
早い	-11.0105
リカ	-11.0106
技法	-11.0107
イング	-11.0107
ron	-11.0108
複雑	-11.0108
桐	-11.0109
金曜	-11.011
rd	-11.011
ことが多く	-11.0111
コミックス	-11.0112
を多く	-11.0114
中核	-11.0115
出場した	-11.0115
ハルト	-11.0117
訪れる	-11.0118
百貨店	-11.0118
ich	-11.0118
世界遺産	-11.0121
入院	-11.0122
残っている	-11.0122
原料	-11.0123
働	-11.0124
138	-11.0124
符号	-11.0124
グレード	-11.0124
マネージャー	-11.0125
ラッ	-11.0126
に代わって	-11.0127
強さ	-11.0128
の選手	-11.0131
アマ	-11.0132
SM	-11.0133
金曜日	-11.0135
俺	-11.0136
幕末	-11.0137
を占め	-11.0137
比率	-11.0139
に見	-11.0141
爵位	-11.0142
雰囲気	-11.0148
ほとんどが	-11.0148
子供たち	-11.0151
港湾	-11.0151
ったが	-11.0151
が大	-11.0152
駅である	-11.0153
却	-11.0154
訪	-11.0155
に至るまで	-11.0155
社会党	-11.0155
ブライアン	-11.0156
足利	-11.0156
和歌山県	-11.0157
重力	-11.0157
界の	-11.0161
石井	-11.0161
eg	-11.0163
ことになり	-11.0164
、1979	-11.0165
AB	-11.0166
BL	-11.0166
まもなく	-11.0166
刑務所	-11.0168
-18	-11.0169
制作された	-11.0169
邪	-11.017
の構造	-11.0172
後部	-11.0174
各地	-11.0174
海軍の	-11.0174
辞職	-11.0174
セブン	-11.0176
てしまい	-11.0176
沿線	-11.0177
ヨーロッパの	-11.0177
振動	-11.0178
バルセロナ	-11.018
1896	-11.018
心臓	-11.0181
召	-11.0181
イエス	-11.0182
全員が	-11.0185
付近で	-11.0188
の強い	-11.0189
場所で	-11.0191
ある程度	-11.0192
棋	-11.0193
浜松	-11.0193
緩和	-11.0193
IG	-11.0194
要望	-11.0196
返り	-11.0196
ならない	-11.0196
サークル	-11.0196
臭	-11.0197
皮膚	-11.0198
FF	-11.0198
建設された	-11.02
が初めて	-11.02
得られる	-11.0202
肝	-11.0203
▁An	-11.0207
並び	-11.0209
排	-11.0211
Vi	-11.0212
尿	-11.0212
の範囲	-11.0214
iz	-11.0215
低迷	-11.0218
入植	-11.022
時点では	-11.0225
全線	-11.0226
しかった	-11.0226
を送り	-11.0226
oc	-11.0226
略称は	-11.0228
シドニー	-11.0229
の開催	-11.0234
心理	-11.0235
部が	-11.0236
慈	-11.0237
斎藤	-11.0239
テオ	-11.024
グレート	-11.024
ようとする	-11.0241
肺	-11.0243
その一方で	-11.0244
削除	-11.0247
ほん	-11.0247
与えられ	-11.0247
的なもの	-11.0249
、1975	-11.0249
細菌	-11.0249
さず	-11.0252
付近の	-11.0254
棚	-11.0254
県内	-11.0255
させるため	-11.0257
回避	-11.0257
二郎	-11.0258
に達する	-11.026
現れ	-11.0261
薬物	-11.0262
ヘリコプター	-11.0263
達が	-11.0266
を迎える	-11.0267
大学名誉教授	-11.0268
役者	-11.0271
の次男	-11.0271
味方	-11.0272
と言われ	-11.0272
St	-11.0274
重複	-11.0274
主任	-11.0275
を終え	-11.0277
シェア	-11.0278
東急	-11.0281
エキ	-11.0282
▁1984	-11.0283
出来ない	-11.0285
生じる	-11.0286
芸人	-11.0286
顧客	-11.0288
まったく	-11.0289
夕方	-11.0289
有利	-11.0291
の指揮	-11.0291
ピーク	-11.0292
した上で	-11.0292
、1981	-11.0293
くらい	-11.0294
トニー	-11.0294
己	-11.0295
の権利	-11.0295
ジュー	-11.0297
は同じ	-11.0297
てから	-11.0298
FI	-11.0299
勉強	-11.0299
乙	-11.03
移行	-11.0302
テリア	-11.0303
残りの	-11.0304
特別な	-11.0305
楼	-11.0306
伊豆	-11.0306
の総称	-11.0308
膝	-11.031
中退	-11.0312
香川県	-11.0315
選ばれ	-11.0315
権威	-11.0315
変わって	-11.0317
高架	-11.0317
死後	-11.0318
バット	-11.0319
ゴム	-11.0319
もん	-11.032
▁Al	-11.0322
のキャラクター	-11.0322
の記述	-11.0322
両方	-11.0323
を満たす	-11.0324
を設立し	-11.0324
使用されていた	-11.0325
スタンド	-11.0326
未満	-11.0328
綴	-11.0328
主役	-11.0329
近衛	-11.0331
コーヒー	-11.0331
UFC	-11.0331
配列	-11.0332
十分な	-11.0333
ないまま	-11.0334
確か	-11.0334
匹	-11.0336
商店街	-11.0336
tic	-11.0337
すけ	-11.0337
川町	-11.0337
si	-11.034
一時期	-11.0342
なって	-11.0342
みち	-11.0343
青森	-11.0344
ミナ	-11.0345
おこ	-11.0346
面の	-11.0347
三島	-11.0353
年以降は	-11.0354
愛知	-11.036
の試合	-11.036
の地名	-11.0361
ミック	-11.0361
候補者	-11.0362
の増加	-11.0362
刃	-11.0364
毛利	-11.0365
こととなる	-11.0365
IL	-11.0365
といわれている	-11.0367
消滅した	-11.0368
子を	-11.0368
LP	-11.037
初期に	-11.0372
ならびに	-11.0375
沿	-11.0375
金額	-11.0375
に備え	-11.0375
マップ	-11.0376
進んで	-11.0378
が現れ	-11.0378
と主張した	-11.0378
滅亡	-11.0379
北部の	-11.0379
高野	-11.038
▁Be	-11.0381
ind	-11.0382
テーブル	-11.0384
恐怖	-11.0386
セックス	-11.0386
スポット	-11.0388
広島市	-11.0389
と呼び	-11.039
仕事を	-11.039
各地の	-11.0391
番台	-11.0393
北区	-11.0394
世界で	-11.0394
人事	-11.0395
んじ	-11.0396
創建	-11.04
郡は	-11.04
撃破	-11.0401
NT	-11.0402
220	-11.0402
受章	-11.0404
人材	-11.0406
たれ	-11.0407
非常	-11.0407
しつつ	-11.0407
に位置している	-11.041
決定戦	-11.041
WBC	-11.0411
肢	-11.0412
径	-11.0413
ey	-11.0415
108	-11.0416
主義者	-11.0418
跡地	-11.0418
ワール	-11.0418
に到着した	-11.0422
ニコラ	-11.0425
マンション	-11.0425
胆	-11.0428
城を	-11.043
残留	-11.0431
発売した	-11.0432
ain	-11.0435
背番号	-11.0435
COM	-11.0435
廊	-11.0436
鴨	-11.0436
選手の	-11.0438
の南	-11.0438
アキ	-11.044
京都市	-11.0441
に向かった	-11.0442
教徒	-11.0442
民衆	-11.0443
山下	-11.0443
】	-11.0445
【	-11.0445
ノート	-11.0445
を追加	-11.0446
らす	-11.0446
マレーシア	-11.0448
会談	-11.045
RT	-11.045
もっと	-11.0451
に勤務	-11.0452
代表取締役	-11.0454
原則として	-11.0455
候	-11.0456
事で	-11.0457
季節	-11.0457
が最も	-11.0458
石炭	-11.0459
なっていった	-11.046
期間は	-11.0462
に任命され	-11.0462
マリオ	-11.0463
一時的に	-11.0463
以前から	-11.0464
航行	-11.0465
総長	-11.0466
レンジャー	-11.0466
存在し	-11.0467
リム	-11.0467
が用いられる	-11.0467
に移転	-11.0467
ox	-11.047
プラットフォーム	-11.047
。1998	-11.0471
何も	-11.0472
と言える	-11.0473
海域	-11.0474
スイッチ	-11.0475
長女	-11.0477
ブロー	-11.0477
ギリシア	-11.0479
ダイヤモンド	-11.0479
セーブ	-11.0483
騎乗	-11.0484
当然	-11.0485
関係の	-11.0486
Fr	-11.0486
変数	-11.0489
建築物	-11.0491
1897	-11.0492
支払	-11.0493
は大きく	-11.0493
につき	-11.0496
往	-11.0496
NC	-11.0496
、1978	-11.0496
いわ	-11.0497
戦った	-11.0498
の座	-11.0498
TD	-11.0498
ことはなかった	-11.05
にいる	-11.05
と同一	-11.05
殆ど	-11.0501
多様な	-11.0501
していなかった	-11.0503
確	-11.0503
法を	-11.0503
トリオ	-11.0504
終わり	-11.0507
筑	-11.0507
が設けられ	-11.0507
子と	-11.0509
軍と	-11.0511
フランス軍	-11.0513
を維持し	-11.0513
1899	-11.0514
触れ	-11.0514
仰	-11.0515
力士	-11.0515
忌	-11.0516
フィラデルフィア	-11.0518
)、「	-11.052
耕	-11.0522
小屋	-11.0523
をして	-11.0523
ことができない	-11.0525
、1976	-11.0527
砕	-11.0528
イスラーム	-11.0528
az	-11.0532
退役	-11.0532
ニエ	-11.0533
の制作	-11.0533
宜	-11.0535
▁現在の	-11.0536
ボリ	-11.0536
FIFA	-11.0536
返還	-11.0538
守り	-11.0539
を使用している	-11.0539
を学んだ	-11.054
メジャーデビュー	-11.054
チップ	-11.054
鞍	-11.0542
横浜市	-11.0542
ピット	-11.0542
迎え	-11.0542
しろ	-11.0543
▁Ro	-11.0543
を見せた	-11.0543
解任	-11.0544
は不明	-11.0545
暗号	-11.0547
同国	-11.0547
ダニエル	-11.0547
トマス	-11.0549
に続く	-11.055
置かれ	-11.055
port	-11.0552
天使	-11.0553
ーラ	-11.0553
PlayStation	-11.0554
描かれている	-11.0555
MT	-11.0556
学院大学	-11.0557
宛	-11.0563
町内	-11.0564
370	-11.0565
祥	-11.0565
政府が	-11.0566
に比べ	-11.0566
施工	-11.0566
トゥル	-11.0567
添	-11.0567
セントラル	-11.0567
規	-11.0568
ick	-11.0568
住居	-11.0569
気持ち	-11.057
▁–	-11.0571
標本	-11.0571
所領	-11.0574
を作った	-11.0575
に設置された	-11.0575
ワル	-11.0577
住宅地	-11.0577
祀	-11.0578
ina	-11.0579
がほとんど	-11.0581
▁まさ	-11.0582
クリスティ	-11.0583
を舞台に	-11.0583
を含めて	-11.0583
だけが	-11.0584
歌舞伎	-11.0584
les	-11.0586
乗せ	-11.0586
リゾート	-11.0586
CI	-11.0586
養成	-11.0588
扱う	-11.059
▁19	-11.059
シーズン終了後	-11.0592
であることが	-11.0595
作画	-11.0595
mon	-11.0595
それ以外の	-11.0596
CC	-11.0598
退社	-11.0598
傘下の	-11.0601
研究科	-11.0602
を広げ	-11.0605
稿	-11.0606
豊田	-11.0606
実施された	-11.0607
議会議員	-11.0608
、1973	-11.0609
埼玉	-11.0609
と改名	-11.061
答	-11.0611
満州	-11.0613
dy	-11.0615
クタ	-11.062
出る	-11.062
1871	-11.0621
ライヴ	-11.0623
を知る	-11.0625
てる	-11.0625
位置づけ	-11.0626
の経営	-11.0626
徴	-11.0626
国立公園	-11.0627
したところ	-11.0628
斑	-11.063
描かれ	-11.063
行い	-11.0632
遅	-11.0634
行っている	-11.0635
順次	-11.0636
延伸	-11.0638
を経由して	-11.0639
大使館	-11.0639
あさ	-11.0641
ぎょう	-11.0642
定着	-11.0642
が開発	-11.0643
齢	-11.0643
2.5	-11.0644
ていること	-11.0644
ループ	-11.0645
水平	-11.0645
しかない	-11.0646
ガソリン	-11.0646
750	-11.0647
全般	-11.0649
役の	-11.065
講座	-11.0653
共同体	-11.0654
十分	-11.0656
Ma	-11.0656
最中	-11.0656
千代	-11.0657
崩	-11.0662
不能	-11.0665
キリスト	-11.0665
坂本	-11.0665
イド	-11.0665
が非常に	-11.0666
に従い	-11.0667
易	-11.0668
省略	-11.0668
併設	-11.0669
橘	-11.0673
▁そして	-11.0675
クレー	-11.0675
▁Sh	-11.0676
大公	-11.0676
通路	-11.0676
海賊	-11.068
該当	-11.0681
330	-11.0681
隻の	-11.0682
福井県	-11.0683
本町	-11.0683
マツ	-11.0684
PP	-11.0685
十字	-11.0685
国勢調査	-11.0686
の際には	-11.0686
焼失	-11.0686
sch	-11.0686
大変	-11.0686
の基本	-11.0688
水産	-11.0692
学的	-11.0693
カナダの	-11.0693
天文学	-11.0696
カントリー	-11.0697
ウラ	-11.0697
バイオ	-11.0698
顎	-11.0698
ana	-11.0699
現存する	-11.0699
gen	-11.0701
小松	-11.0702
ザクセン	-11.0702
捕手	-11.0703
慰	-11.0704
南極	-11.0704
筆頭	-11.0704
が起こる	-11.0707
を再	-11.0707
を構え	-11.071
の時点で	-11.0711
同士の	-11.0711
日中	-11.0712
ソース	-11.0714
アリーナ	-11.0715
三角	-11.0716
併用	-11.0718
家督	-11.072
放棄	-11.0721
の管理	-11.0723
を行って	-11.0726
を大きく	-11.0726
手続き	-11.0729
が必要である	-11.0732
_2	-11.0733
のシングル	-11.0733
を止め	-11.0733
障害者	-11.0736
を書き	-11.0736
詰	-11.0738
グラウンド	-11.0743
同僚	-11.0743
夫の	-11.0744
博多	-11.0744
NTT	-11.0745
その際	-11.0745
致	-11.0747
所持	-11.0747
選手が	-11.0747
▁マ	-11.0747
予約	-11.0749
対称	-11.0752
実用	-11.0757
ice	-11.0758
中央区	-11.0758
が少なく	-11.0758
備え	-11.0759
フットボール	-11.076
▁これらの	-11.0762
ことはない	-11.0764
認められる	-11.0766
劣	-11.0768
に任命された	-11.0772
牧場	-11.0774
神の	-11.0775
本作は	-11.0776
出来	-11.0776
ダイヤ改正	-11.0777
理由は	-11.0778
紋章	-11.0779
白色	-11.078
講義	-11.078
級の	-11.0783
同年の	-11.0783
セク	-11.0784
市と	-11.0784
帰り	-11.0786
専門は	-11.0786
芦	-11.0786
スポ	-11.079
を求めて	-11.0793
電圧	-11.0794
以下のように	-11.0795
ica	-11.0795
▁紀元前	-11.0796
終わる	-11.08
正しい	-11.08
役員	-11.0801
が含まれる	-11.0801
をベースに	-11.0802
pp	-11.0803
ピンク	-11.0803
▁かつては	-11.0804
北東部	-11.0804
に移籍した	-11.0805
キャプテン	-11.0806
▁0	-11.0806
自由に	-11.0808
加賀	-11.0808
スケート	-11.0809
パイプ	-11.0809
する際に	-11.0809
性的	-11.0809
の土地	-11.081
掲げ	-11.0811
推測	-11.0812
鎮圧	-11.0813
表紙	-11.0814
ッパ	-11.0815
躍	-11.0816
準々決勝	-11.0819
都市計画	-11.0819
ハリウッド	-11.082
でもあり	-11.0822
の支援	-11.0823
休日	-11.0824
の武将	-11.0824
佐賀	-11.0828
撃墜	-11.0828
コンスタン	-11.083
とは別に	-11.0831
了	-11.0832
土佐	-11.0833
付く	-11.0833
ort	-11.0835
のイメージ	-11.0835
タカ	-11.0837
メアリー	-11.0837
評判	-11.0837
電化	-11.0837
▁1945	-11.0838
最古の	-11.0838
帆	-11.0839
前提	-11.084
エディ	-11.0841
▁各	-11.0841
共産主義	-11.0842
スパー	-11.0843
けた	-11.0843
に出場した	-11.0843
飼	-11.0844
su	-11.0846
で構成される	-11.0848
衆議院	-11.0848
が発表され	-11.085
従って	-11.0851
落語	-11.0855
EM	-11.0856
ウリ	-11.0857
おん	-11.0858
サンダー	-11.0861
医薬品	-11.0862
同名の	-11.0863
艦艇	-11.0864
楽章	-11.0864
という名前	-11.0865
無限	-11.0869
ニューヨーク州	-11.0869
台の	-11.087
でなく	-11.0871
浦和	-11.0872
産地	-11.0872
シングルス	-11.0873
発注	-11.0873
力学	-11.0875
謀	-11.0876
を表明した	-11.0876
いろ	-11.0877
据え	-11.0882
部隊の	-11.0883
鶏	-11.0884
の王	-11.0884
マスク	-11.0884
を集めた	-11.0886
受け入れ	-11.0888
フォール	-11.0889
属の	-11.0891
調理	-11.0892
造船所	-11.0892
の最終	-11.0893
モバイル	-11.0893
ッキ	-11.0894
戦う	-11.0895
編集者	-11.0898
信長	-11.0898
認められた	-11.09
ッコ	-11.0901
延期	-11.0903
とみなされ	-11.0903
貢	-11.0904
進め	-11.0905
初戦	-11.0906
傍ら	-11.0907
瓦	-11.0907
明確に	-11.0912
クリー	-11.0915
▁re	-11.0916
にも関わらず	-11.0916
エンジンは	-11.0917
トンの	-11.0918
、1974	-11.0919
ピエール	-11.0919
降下	-11.092
作品が	-11.0921
戦時	-11.0921
元々は	-11.0921
ることになる	-11.0922
木造	-11.0922
史跡	-11.0924
人員	-11.0924
りする	-11.0924
などにより	-11.0928
キム	-11.0931
で第	-11.0932
ウルトラ	-11.0932
仮面ライダー	-11.0935
法的	-11.0937
チャンピオンシップ	-11.0937
の総	-11.0938
が生じ	-11.094
は当時	-11.0941
セス	-11.0941
締め	-11.0944
シンボル	-11.0945
インドの	-11.0945
ネク	-11.0946
の人物	-11.0946
毎回	-11.0949
期限	-11.095
マドリード	-11.095
燃	-11.095
この他	-11.0951
LS	-11.0951
存在しない	-11.0953
賛	-11.0953
西方	-11.0954
クイーン	-11.0955
汚染	-11.0956
量が	-11.0957
に触れ	-11.0958
試合に出場し	-11.0958
の人口は	-11.0958
ヴィチ	-11.0962
治安	-11.0962
EA	-11.0963
第二次世界大戦後	-11.0964
されることもある	-11.0965
ach	-11.0965
できるように	-11.0965
レスリング	-11.0967
アサ	-11.0968
音楽院	-11.0969
リーナ	-11.097
とは別	-11.0974
パーツ	-11.0974
野田	-11.0974
テーション	-11.0976
構	-11.0976
避	-11.0978
込まれた	-11.0981
置き	-11.0983
ラート	-11.0984
かける	-11.0984
乗員	-11.0988
熊野	-11.099
垂	-11.099
看板	-11.099
二丁目	-11.0991
人口の	-11.0991
単独で	-11.0991
周囲の	-11.0991
数を	-11.0993
女神	-11.0994
を開設	-11.0995
不振	-11.0995
のではないか	-11.0996
機は	-11.0997
本項では	-11.1
▁1983	-11.1
つである	-11.1003
点は	-11.1003
藤田	-11.1004
本店	-11.1004
学び	-11.1004
ue	-11.1005
かれる	-11.1005
隠れ	-11.1006
ムル	-11.1007
彫	-11.1009
1880	-11.1009
有名である	-11.1009
も同様	-11.101
、1977	-11.1011
立体	-11.1012
に出演した	-11.1012
短期間	-11.1012
鎌倉時代	-11.1012
こん	-11.1012
が生まれた	-11.1014
ぷ	-11.1015
妻の	-11.1015
ロッテ	-11.1016
正確な	-11.1016
の設定	-11.1017
水を	-11.1017
格闘	-11.1018
シード	-11.1018
支払い	-11.1019
▁He	-11.1019
デビューした	-11.102
、1968	-11.1021
特異	-11.1022
めい	-11.1022
微分	-11.1024
書かれている	-11.1025
ソンは	-11.1025
侵略	-11.1025
USS	-11.1029
450	-11.1031
していたため	-11.1033
の孫	-11.1033
デュー	-11.1037
の普及	-11.1037
レーザー	-11.1037
景観	-11.1037
大きさ	-11.1038
そうした	-11.1041
があるため	-11.1042
後者	-11.1043
たん	-11.1044
ロマ	-11.1045
に所属し	-11.1046
Cl	-11.1048
実況	-11.1049
大尉	-11.1051
。1996	-11.1051
テレビ東京	-11.1052
ダス	-11.1052
事業を	-11.1053
、1971	-11.1054
曲は	-11.1054
正教会	-11.1055
の協力	-11.1055
搭乗	-11.1055
いし	-11.1056
妨害	-11.1057
賛成	-11.1057
磐	-11.1058
甲府	-11.1058
260	-11.1061
ツォ	-11.1063
そば	-11.1063
ラック	-11.1063
株主	-11.1063
長岡	-11.1067
認	-11.1069
殺し	-11.107
以	-11.107
水域	-11.1071
とても	-11.1073
合衆国	-11.1076
og	-11.1076
設立した	-11.1076
レア	-11.1078
ひら	-11.1079
レビュー	-11.108
自体が	-11.108
ジェネ	-11.108
することも	-11.1081
用として	-11.1082
国土	-11.1082
方は	-11.1089
1870	-11.1089
月からは	-11.1091
ウィリアムズ	-11.1092
形は	-11.1093
徒歩	-11.1093
高校時代	-11.1094
の初	-11.1095
レント	-11.1095
字は	-11.1097
飾り	-11.1098
体を	-11.1098
胤	-11.11
禄	-11.1101
飲み	-11.1102
早期	-11.1102
日をもって	-11.1103
日曜日	-11.1109
を目指して	-11.111
債	-11.111
の多くが	-11.1112
たものの	-11.1115
。1970	-11.1117
ov	-11.1117
爆撃機	-11.1118
海戦	-11.1118
記す	-11.1119
描いた	-11.1119
図書	-11.112
。1997	-11.1122
貯	-11.1123
がなされ	-11.1124
大戦	-11.1124
主として	-11.1124
▁高	-11.1125
の向上	-11.1127
これまでの	-11.1128
が続いた	-11.113
さらには	-11.1132
体育館	-11.1132
みず	-11.1136
ポケモン	-11.1137
主人公の	-11.1138
パーセント	-11.1138
実は	-11.1139
発症	-11.1139
増え	-11.114
タケ	-11.1141
ロープ	-11.1145
近世	-11.1149
リヤ	-11.115
イア	-11.1151
戦後の	-11.1153
独自	-11.1154
得る	-11.1154
0.0	-11.1154
壊滅	-11.1157
合唱	-11.1158
を決意	-11.1158
怪獣	-11.1158
尾張	-11.1158
を意味し	-11.1159
亡	-11.116
380	-11.1161
次のような	-11.1162
使用していた	-11.1162
東大	-11.1163
登場し	-11.1164
ical	-11.1165
トゥス	-11.1165
を開始する	-11.1167
珍	-11.117
128	-11.1173
抑制	-11.1173
以後は	-11.1173
正義	-11.1174
数百	-11.1176
新作	-11.1176
まって	-11.1176
っていたが	-11.1177
スペインの	-11.1179
チェック	-11.1181
朝日新聞	-11.1181
もあったが	-11.1182
述べた	-11.1184
募	-11.1184
ワース	-11.1184
社は	-11.1186
招集	-11.1186
が開かれ	-11.1186
ner	-11.1187
に移行	-11.1187
砲兵	-11.1188
たちを	-11.1188
並べ	-11.1188
てくる	-11.1191
食べ	-11.1193
は存在しない	-11.1194
アントニオ	-11.1194
とりわけ	-11.1195
ug	-11.1195
開かれ	-11.1199
なぜ	-11.12
劇場版	-11.12
年頃に	-11.1203
として生まれた	-11.1203
集会	-11.1204
▁以下は	-11.1205
拾	-11.1207
コンクリート	-11.1208
愛称	-11.1208
280	-11.121
欄	-11.1212
ウィー	-11.1214
境界	-11.1214
日本における	-11.1214
食い	-11.1215
鷲	-11.1219
レフ	-11.122
ものではない	-11.1222
をかけて	-11.1222
行使	-11.1224
するとともに	-11.1224
偶然	-11.1225
反射	-11.1225
所得	-11.1227
が盛ん	-11.1227
下記	-11.1228
内にある	-11.123
が置かれ	-11.123
バク	-11.1232
230	-11.1233
狼	-11.1233
サーバ	-11.1233
クション	-11.1235
ven	-11.1237
捜索	-11.1237
狭い	-11.1238
月下旬	-11.1238
役で	-11.1239
後述の	-11.1239
被災	-11.1243
立法	-11.1245
ヨーク	-11.1245
靴	-11.1246
誕生した	-11.1246
NK	-11.1247
学科卒業	-11.1247
商標	-11.1248
撮影所	-11.1248
フォース	-11.1253
っぽ	-11.1254
駅と	-11.1255
ABC	-11.1255
SK	-11.1256
等が	-11.1256
ハーフ	-11.1258
磁気	-11.1259
法第	-11.126
を決める	-11.1261
復元	-11.1262
1895	-11.1263
年後に	-11.1265
感謝	-11.1269
ポリス	-11.1272
を探し	-11.1272
取られ	-11.1273
390	-11.1273
人々の	-11.1273
の約	-11.1275
英語で	-11.1277
の評価	-11.1278
函数	-11.128
教区	-11.128
送られ	-11.128
朴	-11.1281
十三	-11.1284
かけて	-11.1287
AND	-11.1288
南米	-11.1289
カーブ	-11.129
郡内	-11.1291
の設立	-11.1295
市役所	-11.1297
交響楽団	-11.1299
統括	-11.1299
最高の	-11.13
net	-11.13
拘束	-11.1302
sk	-11.1303
のタイトル	-11.1304
鹿島	-11.1305
隊は	-11.1306
慎	-11.1307
以上に	-11.1307
奨励	-11.1307
増加した	-11.1308
が運営する	-11.131
携帯	-11.131
ふじ	-11.1311
シカ	-11.1312
再開発	-11.1312
協会の	-11.1312
を上げ	-11.1313
採用されている	-11.1317
▁全	-11.1317
リトル	-11.132
小山	-11.1321
ことも多い	-11.1321
雌	-11.1321
線の駅である	-11.1322
決して	-11.1323
作られ	-11.1324
衝	-11.1324
ence	-11.1325
ood	-11.1327
不安定	-11.1328
PO	-11.1332
判事	-11.1334
餌	-11.1337
学長	-11.1337
南西部	-11.1338
凝	-11.1339
就役	-11.134
適切な	-11.134
圭	-11.1345
揚げ	-11.1346
事実上の	-11.1347
計画は	-11.1347
本格	-11.1348
えば	-11.1349
クラスの	-11.1349
様に	-11.1349
過程で	-11.1349
ツァー	-11.135
ガイド	-11.135
消費者	-11.1351
ッセ	-11.1351
かけた	-11.1353
ソウ	-11.1353
を考える	-11.1353
ベア	-11.1354
芸名	-11.1354
しているため	-11.1356
競合	-11.1356
を失い	-11.1356
ボルト	-11.1359
検定	-11.1359
移管	-11.1359
CT	-11.1359
唄	-11.136
マイン	-11.1361
文学部	-11.1364
の公式	-11.1365
ちゅうがっこう	-11.1365
没した	-11.1365
名称は	-11.1366
直前	-11.1367
みんな	-11.1368
概	-11.1368
引き継がれ	-11.1368
種牡馬	-11.1369
トール	-11.1372
各社	-11.1372
年時点で	-11.1374
その時	-11.1375
の人気	-11.1375
活動している	-11.1377
を備えた	-11.1378
ガーデン	-11.1378
太子	-11.1379
アンナ	-11.1379
宮城	-11.1381
と考えた	-11.1381
づく	-11.1382
エット	-11.1382
妊娠	-11.1383
晶	-11.1386
表彰	-11.1387
世と	-11.1388
偵察	-11.1388
科学者	-11.1389
設けられ	-11.139
度々	-11.1392
カレ	-11.1395
喫	-11.1396
出店	-11.1397
を目的とした	-11.1397
わなかった	-11.1397
取り組み	-11.1398
充実	-11.1402
内蔵	-11.1403
後藤	-11.1403
ジング	-11.1403
かる	-11.1404
これも	-11.1404
の種類	-11.1406
青春	-11.1406
血液型は	-11.1407
▁1982	-11.1407
ボブ	-11.1409
を立ち上げ	-11.1409
臼	-11.141
バリー	-11.141
量子	-11.1412
</	-11.1412
あわせて	-11.1413
行なわれ	-11.1415
が存在した	-11.1415
ハンド	-11.1416
牧師	-11.1417
ができ	-11.1417
同行	-11.1418
は後に	-11.1419
テッド	-11.1422
ik	-11.1422
どれ	-11.1424
虐殺	-11.1424
外国語	-11.1425
利用される	-11.1426
コリン	-11.1426
曾	-11.1426
Le	-11.1427
県立	-11.1428
大聖堂	-11.1429
野生	-11.143
HI	-11.143
の政治家	-11.1431
田川	-11.1432
教養	-11.1433
埋葬	-11.1434
と思い	-11.1434
脅威	-11.1435
の住民	-11.1435
we	-11.1436
がなかった	-11.1437
に出場し	-11.1438
有限	-11.1439
、1969	-11.144
響	-11.144
福田	-11.1441
握	-11.1442
番地	-11.1443
1868	-11.1445
検証	-11.1446
予防	-11.1447
鞭	-11.1448
Do	-11.1449
テキサス州	-11.1451
冷却	-11.1452
レオン	-11.1455
法令	-11.1457
インディ	-11.1459
にあって	-11.146
重視	-11.1461
ことと	-11.1465
長に就任	-11.1466
概ね	-11.1467
str	-11.1469
マスコミ	-11.1469
Qu	-11.1471
車が	-11.1471
のライブ	-11.1472
路線バス	-11.1474
尽く	-11.1474
東日本大震災	-11.1476
を採用している	-11.1477
関連の	-11.1478
コック	-11.1481
帰国後	-11.1482
釈放	-11.1483
回答	-11.1483
広報	-11.1484
これに対して	-11.1486
人から	-11.1486
盆地	-11.1487
れい	-11.1489
の諸	-11.1491
に改名	-11.1492
貨幣	-11.1493
収録された	-11.1494
野菜	-11.1494
ya	-11.1495
謝	-11.1495
果実	-11.1495
現状	-11.1496
北条	-11.1497
会社である	-11.1498
たけ	-11.15
に収録	-11.1503
その名	-11.1504
ロジャー	-11.1505
少なく	-11.1506
住友	-11.1508
ブリン	-11.1508
ロップ	-11.1508
去った	-11.1509
胎	-11.151
母音	-11.1511
が収録されている	-11.1511
年連続で	-11.1511
日本海	-11.1514
を組み	-11.1514
心の	-11.1514
コミュニケーション	-11.1515
大いに	-11.1515
透明	-11.1518
パーティー	-11.1518
結果的に	-11.1519
併せて	-11.1519
基本的には	-11.1519
隣接	-11.152
学校法人	-11.152
本国	-11.1522
殺された	-11.1522
提	-11.1526
汚	-11.1527
で敗れ	-11.1528
ギタリスト	-11.1528
ark	-11.1531
瞬間	-11.1532
かた	-11.1533
オク	-11.1533
▁南	-11.1534
種子	-11.1535
トップチーム	-11.1535
▁アル	-11.1535
喪失	-11.1535
岐	-11.1537
、1964	-11.1538
ウェールズ	-11.1538
人として	-11.1539
踏み	-11.154
尉	-11.154
仕組み	-11.1543
ゲージ	-11.1545
CG	-11.1545
日本でも	-11.1545
大学文学部	-11.1545
瓶	-11.1546
使われていた	-11.155
1872	-11.155
代表取締役社長	-11.155
燃焼	-11.1551
后	-11.1552
次官	-11.1554
の町	-11.1554
垂直	-11.1555
定められた	-11.1555
享保	-11.1555
ダーク	-11.1556
短く	-11.1556
強度	-11.1558
ソビエト	-11.1558
迎えた	-11.1561
晃	-11.1561
裸	-11.1562
に登場した	-11.1565
付加	-11.1566
損失	-11.1567
1873	-11.1569
部分が	-11.1569
徐	-11.1571
かえ	-11.1572
代数	-11.1573
テキスト	-11.1573
残されている	-11.1576
安全保障	-11.1576
返す	-11.1577
表記は	-11.1578
無人	-11.1578
率が	-11.1578
期には	-11.1579
と考える	-11.1579
を設立した	-11.1579
列車は	-11.1581
舌	-11.1581
がなされた	-11.1582
地で	-11.1582
VE	-11.1582
の代わりに	-11.1583
を流れる	-11.1584
スティー	-11.1584
開局	-11.1589
紛	-11.159
も見られる	-11.159
挿入	-11.1591
Ar	-11.1591
my	-11.1591
を演じた	-11.1593
隠し	-11.1595
の墓	-11.1596
フュー	-11.1596
道場	-11.1596
させている	-11.1599
でありながら	-11.16
話し	-11.1602
タキ	-11.1602
グラー	-11.1605
保障	-11.1605
記した	-11.1605
階建て	-11.1606
監督に就任	-11.1607
死ぬ	-11.1608
棲	-11.1608
近藤	-11.1609
幡	-11.1609
▁旧	-11.1609
ペース	-11.161
考古学	-11.161
ラーズ	-11.1612
専属	-11.1613
アフ	-11.1615
サッ	-11.1616
称号	-11.1616
熱帯	-11.1617
スクリーン	-11.162
利用されている	-11.1621
コンテナ	-11.1621
販売されている	-11.1624
に登場	-11.1624
職人	-11.1624
ier	-11.1627
形成された	-11.163
初優勝	-11.163
阿部	-11.1632
法務	-11.1632
AFC	-11.1633
所有者	-11.1633
と称する	-11.1634
無い	-11.1636
人口約	-11.1638
テキサス	-11.164
国民党	-11.164
平行	-11.164
おい	-11.1641
輩出	-11.1646
dr	-11.1647
この事件	-11.1647
することが可能	-11.1647
出している	-11.1649
終わった	-11.1653
同作	-11.1655
▁前作	-11.1656
伝達	-11.1656
ess	-11.1657
墜落	-11.1657
槍	-11.1658
ヴィア	-11.1659
燕	-11.1659
チル	-11.1663
を製造	-11.1663
の建物	-11.1664
中学生	-11.1664
▁Le	-11.1666
ave	-11.1666
呼びかけ	-11.1669
空手	-11.1672
に敗れた	-11.1673
渓	-11.1673
ぐん	-11.1674
違法	-11.1676
東芝	-11.1676
県にある	-11.1677
プロテスタント	-11.1678
万石	-11.1679
汁	-11.1679
制約	-11.168
タラ	-11.1681
ぞう	-11.1681
スペイン語	-11.1682
並み	-11.1682
▁オ	-11.1683
日野	-11.1683
充	-11.1684
半ば	-11.1689
いずれ	-11.169
SHI	-11.169
砂漠	-11.1691
老朽化	-11.1692
歌謡	-11.1693
抑え	-11.1693
役として	-11.1694
を執筆	-11.1696
を兼ね	-11.1699
所長	-11.17
アーサー	-11.17
ことが明らか	-11.17
。1995	-11.1703
β	-11.1704
が描かれている	-11.1704
残された	-11.1704
マーティン	-11.1705
の企画	-11.1706
砲塔	-11.1708
つもり	-11.1709
藩士	-11.1711
に影響	-11.1712
嘆	-11.1712
交わ	-11.1713
。1994	-11.1714
だけではなく	-11.1714
永禄	-11.1714
崖	-11.1715
ium	-11.1715
キハ	-11.1715
策定	-11.1715
の差	-11.1716
Po	-11.172
らん	-11.1721
接続する	-11.1723
iss	-11.1723
技師	-11.1724
三木	-11.1724
なき	-11.1725
MB	-11.1726
すべく	-11.1727
第二次世界大戦中	-11.1729
ヴェネツィア	-11.1733
タウ	-11.1736
一般の	-11.1736
優勝を果たした	-11.1738
ワークス	-11.1738
Gr	-11.1739
ユニバーサル	-11.174
に戻って	-11.174
弱い	-11.174
縛	-11.1742
取り上げ	-11.1742
逮捕された	-11.1742
Me	-11.1742
を使用して	-11.1744
ev	-11.1744
二軍	-11.1745
呈	-11.1745
○○	-11.1746
再放送	-11.1748
煮	-11.175
コント	-11.1751
日本映画	-11.1752
用いる	-11.1753
万枚	-11.1753
af	-11.1753
満足	-11.1754
ボロ	-11.1754
サウ	-11.1755
IBM	-11.1755
るよう	-11.1756
投与	-11.1757
看護	-11.1759
HP	-11.176
登記	-11.176
切る	-11.176
大ヒット	-11.176
出生	-11.1763
評議会	-11.1764
土壌	-11.1765
次いで	-11.1766
時間は	-11.1771
ath	-11.1771
銅メダル	-11.1773
BGM	-11.1774
Mo	-11.1774
不良	-11.1775
コミューン	-11.1775
の勝利	-11.1776
実家	-11.1776
少佐	-11.1777
小笠原	-11.1777
狩	-11.1778
突入	-11.1778
に持ち	-11.1782
支流	-11.1782
うまく	-11.1783
とする説	-11.1785
土木	-11.1786
患	-11.1786
三重	-11.1786
倶楽部	-11.1787
はいずれも	-11.1787
船の	-11.1787
を送る	-11.1787
Go	-11.179
都心	-11.1792
が施され	-11.1792
部分を	-11.1793
ブルック	-11.1793
ジェフ	-11.1794
家老	-11.1794
ジル	-11.1795
見方	-11.1795
ではないか	-11.1796
笹	-11.1798
缶	-11.1798
aw	-11.1798
渋	-11.1799
、1967	-11.1801
大学卒業後	-11.1801
農林	-11.1804
á	-11.1805
Mar	-11.1808
My	-11.1808
を提供し	-11.1809
河原	-11.181
論じ	-11.181
クーデター	-11.1815
新聞社	-11.1816
索	-11.1817
攻撃を	-11.1818
熱心	-11.1818
失われ	-11.1818
pa	-11.1819
▁1979	-11.1819
ペルシア	-11.1822
秀吉	-11.1824
農村	-11.1824
債務	-11.1824
駿	-11.1825
を訪れた	-11.1826
lu	-11.1827
動機	-11.1828
プレミアリーグ	-11.1828
の支持	-11.1829
通学	-11.1829
チェンジ	-11.1829
全部	-11.183
除去	-11.1832
▁本作は	-11.1832
多くは	-11.1832
したとき	-11.1834
慶応	-11.1835
に似た	-11.1835
かつて存在した	-11.1836
があること	-11.1836
を押し	-11.1838
エッ	-11.1838
が起こり	-11.1838
新設された	-11.1838
は基本的に	-11.1839
を担う	-11.1839
要件	-11.1839
然と	-11.1843
頂点	-11.1844
ません	-11.1845
以内	-11.1846
安政	-11.1847
地獄	-11.1847
野球部	-11.1848
発生した	-11.1849
ah	-11.185
今まで	-11.185
ーネ	-11.1852
セガ	-11.1853
スターズ	-11.1853
付いて	-11.1854
を収録した	-11.1855
are	-11.1856
とされていた	-11.1859
子孫	-11.1862
が入る	-11.1863
ビーム	-11.1863
チック	-11.1863
を置いて	-11.1865
に出る	-11.1865
lan	-11.1866
厚生	-11.1866
天井	-11.1866
他社	-11.1867
ツイン	-11.1869
この年の	-11.1871
を付け	-11.1872
技能	-11.1873
民主主義	-11.1875
に終わり	-11.1876
▁La	-11.1878
照明	-11.188
正確に	-11.1882
と発表した	-11.1883
失敗した	-11.1884
福岡市	-11.1885
連載された	-11.1885
も可能	-11.1886
-12	-11.1888
ユニオン	-11.1888
じま	-11.1888
ベンチ	-11.1888
リヒ	-11.1889
を生かし	-11.1891
を発見した	-11.1891
ドリー	-11.1892
番組である	-11.1892
斬	-11.1893
▁20	-11.1893
が出た	-11.1894
神田	-11.1895
することにより	-11.1896
近隣	-11.1896
牝馬	-11.1897
ock	-11.1898
に専念	-11.1898
に転じ	-11.19
新しく	-11.1902
和歌山	-11.1903
、1965	-11.1906
徹底	-11.1907
高知	-11.1907
呼吸	-11.1907
出される	-11.1908
体操	-11.1908
▁1981	-11.1909
源氏	-11.191
スティック	-11.1911
まえ	-11.1911
テール	-11.1913
まわ	-11.1913
ッテ	-11.1914
日の対	-11.1916
小田原	-11.1916
兵力	-11.1917
ファイター	-11.1918
リョ	-11.1918
活性	-11.1918
子に	-11.1919
ショット	-11.1921
編集長	-11.1923
るようになり	-11.1924
の規定	-11.1924
領地	-11.1924
次男	-11.1927
芸術家	-11.1928
TC	-11.1929
ü	-11.193
を借り	-11.193
起訴	-11.193
▁t	-11.193
聞き	-11.1931
商店	-11.1933
GS	-11.1935
バイク	-11.194
銀メダル	-11.194
神奈川	-11.194
1600	-11.1941
ッソ	-11.1941
1884	-11.1942
人々は	-11.1945
釈	-11.1946
機能を	-11.1946
稼働	-11.1947
ドイツ人	-11.1948
フェルト	-11.1948
演算	-11.1948
運命	-11.1949
畳	-11.195
1891	-11.1951
クラーク	-11.1951
飯田	-11.1951
事から	-11.1952
▁[	-11.1952
ひとつ	-11.1953
歳から	-11.1954
連合会	-11.1954
を建て	-11.1954
設置された	-11.1955
スケ	-11.1956
und	-11.1956
競輪	-11.1956
代行	-11.1957
敵の	-11.1958
分かれ	-11.1958
アンダー	-11.196
Ju	-11.1962
日米	-11.1963
求められる	-11.1964
福山	-11.1965
自分たち	-11.1965
BR	-11.1968
トレー	-11.1971
ニューヨーク市	-11.1972
阻止	-11.1975
pl	-11.1975
の一部が	-11.1975
アメリカ人	-11.1979
足を	-11.198
完結	-11.198
礁	-11.1981
ray	-11.1982
たびたび	-11.1983
ならず	-11.1983
開催されている	-11.1983
経営者	-11.1983
載せ	-11.1986
具体的な	-11.1986
読む	-11.1987
ザル	-11.1987
まつり	-11.1989
チャンス	-11.199
墨	-11.1991
アメリカでは	-11.1992
ってしまう	-11.1993
米ドル	-11.1994
ブライ	-11.1996
ris	-11.1997
PV	-11.1998
ライナー	-11.1998
にほん	-11.2
精度	-11.2001
ゴス	-11.2003
使用した	-11.2004
弾薬	-11.2004
豊かな	-11.2005
FE	-11.2005
やかな	-11.2005
排出	-11.2006
楠	-11.2008
もあるが	-11.2008
阻害	-11.2011
姫路	-11.2012
qu	-11.2016
nn	-11.2017
浅草	-11.2019
関節	-11.2022
世界観	-11.2022
疑い	-11.2023
Ba	-11.2025
走る	-11.2025
も参照	-11.2026
婦人	-11.2026
に任ぜられ	-11.2026
討伐	-11.2027
売れ	-11.2027
単一	-11.2028
カ国	-11.2029
q	-11.2029
対空	-11.2029
に含まれ	-11.2031
ホイ	-11.2032
を追い	-11.2033
習慣	-11.2034
麓	-11.2036
職務	-11.2037
かかった	-11.204
を収め	-11.2042
いつも	-11.2042
学士	-11.2043
儒	-11.2043
ラグ	-11.2043
じょ	-11.2043
ish	-11.2045
中盤	-11.2046
天文台	-11.2046
場合が多い	-11.2048
リッチ	-11.2048
識別	-11.205
290	-11.205
公式に	-11.2051
定員	-11.2051
アドレス	-11.2052
オイル	-11.2054
メートルの	-11.2057
るまで	-11.2057
1886	-11.2058
テック	-11.2059
▁戦後	-11.2061
方を	-11.2061
勝ちを収め	-11.2063
海底	-11.2063
1892	-11.2064
ran	-11.2064
ビジョン	-11.2065
YA	-11.2065
キリ	-11.2067
遺伝	-11.2068
に掲載された	-11.2068
として生まれる	-11.2069
1893	-11.2069
この試合	-11.207
ONE	-11.2071
フスキー	-11.2072
Dr	-11.2073
京阪	-11.2074
総務	-11.2075
閲覧	-11.2078
が出る	-11.2081
庶民	-11.2082
メラ	-11.2082
学年	-11.2083
落下	-11.2083
述べる	-11.2083
停車場線	-11.2086
のもとに	-11.2087
映画館	-11.209
貨車	-11.2091
法は	-11.2092
▁Ho	-11.2092
メチル	-11.2094
仮名	-11.2096
説明する	-11.2096
もちろん	-11.2097
敵対	-11.2099
CPU	-11.2099
正当	-11.2099
長は	-11.2101
小学生	-11.2101
右翼	-11.2102
車両は	-11.2103
マルコ	-11.2107
old	-11.2108
の定義	-11.2108
の記事	-11.2109
東京帝国大学	-11.211
ぶつ	-11.2111
ホンダ	-11.2111
ハリー	-11.2113
元素	-11.2113
声明	-11.2114
の大半	-11.2115
が困難	-11.2115
に迎え	-11.2117
広がり	-11.2117
繰り返し	-11.2118
4000	-11.2119
ものだ	-11.212
国際連合	-11.2123
審議	-11.2124
1894	-11.2125
豚	-11.2126
月曜	-11.2129
の木	-11.2129
取り付け	-11.213
▁1950	-11.2131
の要素	-11.2132
yn	-11.2134
占め	-11.2135
ゾー	-11.2135
までの間	-11.2136
扱	-11.2139
pi	-11.2139
の影響を受け	-11.214
に続いて	-11.2142
労働組合	-11.2142
メカ	-11.2142
っち	-11.2143
盛岡	-11.2144
グローバル	-11.2146
頃には	-11.2146
済み	-11.2147
放送される	-11.2148
ぽ	-11.2149
倉庫	-11.2149
世紀から	-11.215
アトランタ	-11.215
利用可能	-11.2154
されておらず	-11.2154
州都	-11.2157
が起こった	-11.2158
向かい	-11.2159
使者	-11.216
金の	-11.2162
言われ	-11.2163
陣営	-11.2164
へ移	-11.2165
と語った	-11.2165
島根県	-11.2166
の計	-11.2166
無効	-11.2169
リコ	-11.2169
開館	-11.217
袖	-11.2171
出雲	-11.2172
ite	-11.2173
年目の	-11.2176
データを	-11.2177
注釈	-11.2178
全身	-11.2178
ser	-11.218
にそれぞれ	-11.2181
プラザ	-11.2181
されることになった	-11.2183
号車	-11.2184
Ver	-11.2184
出身者	-11.2185
浮上	-11.2185
農家	-11.2186
リット	-11.2186
謝罪	-11.2187
救出	-11.2187
日光	-11.2188
正式名称	-11.219
Vol	-11.2191
すぎる	-11.2191
就航	-11.2192
で敗れた	-11.2193
親交	-11.2193
かさ	-11.2194
TH	-11.2195
マンガ	-11.2196
撃沈	-11.2196
発売され	-11.2198
疎	-11.2199
推移	-11.2202
倫理	-11.2203
遍	-11.2203
データベース	-11.2205
以内に	-11.2205
江戸時代の	-11.2205
サント	-11.2209
を切り	-11.221
▁Bo	-11.221
適応	-11.2211
をそれぞれ	-11.2212
行動を	-11.2212
ユーゴスラビア	-11.2213
っこ	-11.2214
に就任し	-11.2215
皇太子	-11.2215
周辺に	-11.222
ISO	-11.2222
突破	-11.2227
描き	-11.2229
この時点で	-11.2229
神殿	-11.2231
宴	-11.2231
Pr	-11.2233
スマートフォン	-11.2234
壮	-11.2238
エウ	-11.224
制定された	-11.2242
オールスター	-11.2243
を派遣し	-11.2245
住所	-11.2245
、1945	-11.2246
監督は	-11.2247
own	-11.2247
学区	-11.2248
父が	-11.2249
らせる	-11.225
大統領選挙	-11.225
思い出	-11.2251
レディ	-11.2251
電流	-11.2252
1885	-11.2253
降板	-11.2258
流入	-11.2258
産の	-11.2259
潔	-11.2259
と比べて	-11.2262
セリエ	-11.2263
演習	-11.2263
鉛	-11.2264
夜の	-11.2264
テリ	-11.2265
を続ける	-11.2265
革新	-11.2265
大谷	-11.2265
北軍	-11.2265
改訂	-11.2266
位相	-11.2266
うえで	-11.2266
エラ	-11.2268
マウント	-11.2268
実質的に	-11.2268
▁日本の	-11.227
は既に	-11.227
二つ	-11.2271
シロ	-11.2272
最初は	-11.2273
駆逐隊	-11.2276
傍	-11.2276
二人の	-11.2276
最小	-11.2277
準決勝で	-11.2278
不要	-11.2279
を唱え	-11.2281
幼少	-11.2281
に着手	-11.2282
水中	-11.2282
角度	-11.2283
なのか	-11.2284
反撃	-11.2284
ペルー	-11.2286
それ以降	-11.2286
コミ	-11.2288
に立つ	-11.2291
マルクス	-11.2293
相模	-11.2298
land	-11.23
▁You	-11.2303
記載されている	-11.2304
をつけ	-11.2306
ベースボール	-11.2306
の可能性	-11.2307
個々の	-11.2309
ピュ	-11.231
mer	-11.231
同型	-11.2311
契約を結んだ	-11.2311
する際	-11.2311
オロ	-11.2313
これに対し	-11.2313
を図った	-11.2314
として参加	-11.2314
跳	-11.2315
リレー	-11.2315
バス停	-11.2317
カトリック教会	-11.2318
▁II	-11.2321
彼に	-11.2323
列島	-11.2324
に使われる	-11.2325
ドライ	-11.2326
CP	-11.2329
この際	-11.233
エコ	-11.2331
んでおり	-11.2332
アシスト	-11.2333
東区	-11.2333
開始された	-11.2335
の裏	-11.2336
と比較して	-11.2337
潰	-11.2338
出典	-11.234
1888	-11.234
傾斜	-11.2344
が形成され	-11.2344
の主要な	-11.2345
信者	-11.2345
市販	-11.2346
ラマ	-11.2347
HC	-11.2347
立つ	-11.2349
機関銃	-11.2351
セカンド	-11.2352
が起き	-11.2352
が開発した	-11.2358
封じ	-11.2359
イラ	-11.236
佐野	-11.236
ミラノ	-11.2364
TT	-11.2365
歳のとき	-11.2366
高崎	-11.2367
長谷川	-11.2367
と呼称	-11.2367
妖怪	-11.2368
隠居	-11.2369
▁Con	-11.2369
継いで	-11.2369
語っている	-11.2369
予告	-11.2371
ロシア語	-11.2371
のほかに	-11.2373
大量に	-11.2374
芝居	-11.2376
▁14	-11.2377
に乗って	-11.2377
切った	-11.2377
ake	-11.2377
遼	-11.238
Tr	-11.238
カワ	-11.238
の運用	-11.2381
廻	-11.2384
やって	-11.2384
を掛け	-11.2384
肉体	-11.2385
を歴任した	-11.2387
LOVE	-11.2388
広大な	-11.2389
★	-11.239
ウエスト	-11.2391
-16	-11.2392
が搭載され	-11.2392
PL	-11.2393
プトン	-11.2394
るようになる	-11.2394
が残っている	-11.2395
ウェン	-11.2395
和解	-11.2396
ハウゼン	-11.2396
としており	-11.2397
法廷	-11.2398
青木	-11.2398
をとった	-11.2398
大型の	-11.24
配下	-11.2401
航空会社	-11.2402
ニッ	-11.2402
開幕戦	-11.2403
日本国内で	-11.2404
靖	-11.2407
この年は	-11.2408
アレク	-11.2409
1887	-11.2412
外れ	-11.2412
ッシング	-11.2414
セッション	-11.2416
ハマ	-11.2417
越後	-11.2418
総選挙	-11.2418
過剰	-11.2419
詠	-11.242
鳥類	-11.2421
カルロス	-11.2422
に生まれ	-11.2423
はかつて	-11.2423
ニズム	-11.2424
することによって	-11.2424
の拡大	-11.2425
藻	-11.2427
そのほか	-11.243
仮説	-11.243
年生の	-11.2431
寄与	-11.2433
並行して	-11.2433
大井	-11.2434
▁1972	-11.2434
Be	-11.2435
宮内	-11.2436
プロセッサ	-11.2436
3,000	-11.2438
らと共に	-11.2439
方法で	-11.2441
東南アジア	-11.2441
カウント	-11.2443
央	-11.2445
サウンドトラック	-11.2446
先住民	-11.2447
日産	-11.2447
同年に	-11.2449
停	-11.2449
res	-11.2451
出場し	-11.2453
マーケット	-11.2454
先進	-11.2455
およびその	-11.2456
南東部	-11.2458
骨折	-11.2458
みる	-11.2458
乏	-11.246
ric	-11.246
映画祭	-11.2461
が決定した	-11.2461
外見	-11.2462
収録曲	-11.2462
示す	-11.2463
前回	-11.2464
上は	-11.2467
野党	-11.247
っぱ	-11.247
のみを	-11.2471
ッラ	-11.2471
グロー	-11.2472
の伝統	-11.2472
高知県	-11.2472
枚目	-11.2473
呼ぶ	-11.2474
ウォル	-11.2475
批評家	-11.2476
ハンター	-11.2477
収益	-11.2477
せき	-11.2479
ゅ	-11.2479
なくても	-11.2481
認証	-11.2482
台北	-11.2484
用水	-11.2484
造り	-11.2485
出口	-11.2487
ミックス	-11.249
視聴	-11.2493
下位	-11.2494
配慮	-11.2494
クラン	-11.2495
は比較的	-11.2497
簡単に	-11.2498
分間	-11.2499
公務員	-11.2499
与えられた	-11.2499
敦	-11.25
どん	-11.25
ブラッド	-11.2501
386	-11.2502
組み込まれ	-11.2502
したことから	-11.2503
遠く	-11.2504
がよく	-11.2506
ara	-11.2506
老人	-11.2508
市域	-11.2508
法学	-11.2509
津市	-11.2509
異なり	-11.251
葬儀	-11.2513
会合	-11.2513
ture	-11.2513
伝えた	-11.2514
留め	-11.2515
診療	-11.2516
とくに	-11.2517
出場機会	-11.252
部分に	-11.252
min	-11.2522
くま	-11.2522
リリースした	-11.2522
謎	-11.2523
ホイール	-11.2525
伏見	-11.2525
皇子	-11.2527
を超え	-11.2527
採択	-11.2528
久保	-11.253
ウルトラマン	-11.2531
形式で	-11.2534
ダメージ	-11.2534
集まり	-11.2536
を行わ	-11.2537
出身で	-11.2537
ラッシュ	-11.2542
1869	-11.2542
ことができた	-11.2543
繁栄	-11.2544
Na	-11.2548
歯科	-11.2549
宮崎県	-11.2549
方面へ	-11.2551
の発売	-11.2553
を残す	-11.2553
否	-11.2554
ているため	-11.2555
ムスリム	-11.2555
起こる	-11.2556
創業者	-11.2556
夏季	-11.2556
マウス	-11.2556
摂取	-11.2557
プレミアム	-11.2558
単なる	-11.2559
相手に	-11.2561
東海道	-11.2562
を目的として	-11.2563
に努め	-11.2564
警告	-11.2568
の顔	-11.2571
ないもの	-11.2572
増強	-11.2572
の小説	-11.2572
特撮	-11.2575
実質	-11.2575
NET	-11.2577
再会	-11.2579
年半	-11.2581
最高位	-11.2584
塊	-11.2585
ブン	-11.2585
中東	-11.2588
猟	-11.2589
打席	-11.2591
に指定された	-11.2593
党首	-11.2595
家督を	-11.2597
が流れ	-11.2598
クリーム	-11.2601
錯	-11.2602
成功した	-11.2603
。1992	-11.2604
発動	-11.2606
ことによる	-11.2607
Pe	-11.2607
3-0	-11.2608
John	-11.2609
知られた	-11.2609
未だ	-11.2611
1878	-11.2613
理由で	-11.2614
が生じる	-11.2616
注目を集め	-11.2616
リーガ	-11.2616
川口	-11.2616
物体	-11.2616
サリ	-11.2617
南軍	-11.2617
ドッグ	-11.2617
▁Mar	-11.2618
タイトルは	-11.2619
大津	-11.2619
知名度	-11.2619
シルバー	-11.262
蒸気機関車	-11.262
定めた	-11.262
基金	-11.2621
を考え	-11.2622
の世帯数と人口は以下の通りである	-11.2622
▁+	-11.2623
550	-11.2623
協奏曲	-11.2625
蜂起	-11.2625
異なっている	-11.2626
、1966	-11.2626
スケール	-11.2627
黙	-11.2629
捧げ	-11.2632
▁1973	-11.2634
サーキット	-11.2634
oo	-11.2635
どちらも	-11.2637
経歴	-11.2637
ib	-11.2637
らぬ	-11.2638
フェイス	-11.2638
影響を受けた	-11.2638
漂	-11.2638
胞	-11.264
最強	-11.2641
は少ない	-11.2644
作風	-11.2644
ブラー	-11.2645
として知られている	-11.2646
レジ	-11.2648
tro	-11.2649
木材	-11.265
することもある	-11.2651
徳川家	-11.2653
動詞	-11.2654
TOKYO	-11.2657
犠牲	-11.2657
8000	-11.2658
銀座	-11.2658
チェス	-11.2658
ルーツ	-11.2659
倫	-11.266
排水	-11.266
著しく	-11.2661
と結婚し	-11.2661
近代化	-11.2662
代表の	-11.2662
相次いで	-11.2663
優位	-11.2664
直し	-11.2664
をいう	-11.2665
山中	-11.2665
安価	-11.2666
合流する	-11.2667
が無く	-11.2667
のひとつである	-11.2668
條	-11.2669
交戦	-11.267
歌い	-11.267
ラト	-11.2671
外務省	-11.2672
鳥取県	-11.2672
川村	-11.2674
知らせ	-11.2675
理事会	-11.2675
推奨	-11.268
友好	-11.2681
死体	-11.2681
情勢	-11.2681
申し	-11.2681
の意見	-11.2683
ベス	-11.2684
タク	-11.2686
ラーメン	-11.2686
停車する	-11.2687
作曲した	-11.2687
没後	-11.2691
じゅ	-11.2692
区にある	-11.2692
父親は	-11.2694
流出	-11.2696
ロボ	-11.2696
自由民主党	-11.2696
食べる	-11.2696
出品	-11.2697
の一員	-11.2697
柴	-11.2697
和歌	-11.2698
に変え	-11.2699
ure	-11.2701
YouTube	-11.2701
マック	-11.2701
399	-11.2706
イロ	-11.2707
人も	-11.2708
シェー	-11.2708
bi	-11.2712
高層	-11.2712
バラエティ	-11.2712
っか	-11.2713
の保護	-11.2718
UM	-11.2718
正体	-11.2719
の発生	-11.272
湊	-11.2721
主演の	-11.2722
。1993	-11.2723
を挟んで	-11.2723
経由で	-11.2724
凡	-11.2724
形式の	-11.2727
財団法人	-11.2727
関わり	-11.273
bu	-11.2732
題材	-11.2732
門下	-11.2733
Ph	-11.2733
れず	-11.2734
荒川	-11.2734
を見つけ	-11.2735
の物語	-11.2735
血液型	-11.2736
に発生した	-11.2736
毎に	-11.2737
ook	-11.2737
シフト	-11.2741
住民の	-11.2742
6000	-11.2743
アース	-11.2743
厳しく	-11.2744
発信	-11.2745
しやすい	-11.2747
を備え	-11.2749
朝日放送	-11.2749
室町時代	-11.275
アンテナ	-11.2751
ガールズ	-11.2752
視覚	-11.2754
エミ	-11.2755
詳しく	-11.2757
品川	-11.2758
の登場	-11.2759
年間で	-11.276
を誇る	-11.2761
西ドイツ	-11.2762
TI	-11.2762
最後まで	-11.2764
松田	-11.2765
似ている	-11.2765
胴体	-11.2767
ドメイン	-11.2767
ヲ	-11.2767
ベッド	-11.2768
を伴う	-11.2769
決勝戦	-11.2771
設定されている	-11.2771
められ	-11.2771
併合	-11.2773
奴	-11.2773
ロンドンの	-11.2773
を決定	-11.2774
らせた	-11.2777
工芸	-11.2777
国産	-11.2779
把握	-11.2779
\	-11.2781
。1960	-11.2783
シャトル	-11.2783
たちと	-11.2783
らとともに	-11.2787
イカ	-11.2787
サマー	-11.2787
の著作	-11.2787
中立	-11.2788
ドラえもん	-11.279
フォート	-11.2791
シニア	-11.2793
斜	-11.2795
ART	-11.2795
償	-11.2796
委員会は	-11.2797
ケア	-11.2798
出荷	-11.2798
グッド	-11.2799
笛	-11.2801
並行	-11.2802
制作の	-11.2803
ていたこと	-11.2804
たことで	-11.2807
▁1978	-11.2807
無理	-11.2812
腫	-11.2812
鳥取	-11.2813
などを歴任	-11.2813
逮捕され	-11.2815
総額	-11.2816
を置き	-11.2817
東武	-11.2817
の街	-11.2817
望遠鏡	-11.2817
親友	-11.2818
ビリー	-11.2818
噴火	-11.2819
が確認され	-11.282
ヘリ	-11.2821
貸し	-11.2823
薫	-11.2823
ピック	-11.2825
を書いた	-11.2827
に由来し	-11.2828
本作品	-11.2828
普段	-11.2829
アーズ	-11.283
因子	-11.283
チャイ	-11.2831
▁be	-11.2832
も行っている	-11.2832
落とし	-11.2833
捕獲	-11.2833
マニア	-11.2837
ずる	-11.2838
教科書	-11.2838
癒	-11.2838
番目	-11.284
出会い	-11.2843
出入口	-11.2844
ヶ所	-11.2844
を重視し	-11.2847
無事	-11.285
を要する	-11.285
単純な	-11.2851
CF	-11.2855
黒田	-11.2855
▁on	-11.2857
鄭	-11.2857
無し	-11.2857
0.5	-11.2858
蓄	-11.286
管理者	-11.2861
湧	-11.2861
アンリ	-11.2862
マレー	-11.2863
つけられ	-11.2863
を目的に	-11.2864
▁Th	-11.2865
マジック	-11.2865
南端	-11.2866
のとき	-11.2867
発祥	-11.287
ホラー	-11.2871
墳	-11.2871
が主流	-11.2872
べる	-11.2873
Japan	-11.2875
年の映画	-11.2876
があって	-11.2877
曽	-11.2877
根本	-11.2878
現役引退	-11.2878
含む	-11.2879
戦死した	-11.2882
科目	-11.2884
支給	-11.2886
内での	-11.2887
佐賀県	-11.289
学ぶ	-11.2891
続いている	-11.2891
の中の	-11.2892
中学校に通う場合	-11.2893
アイヌ	-11.2893
という名	-11.2895
を目指した	-11.2896
▁当初は	-11.2896
はないが	-11.2896
ノア	-11.2897
1876	-11.2897
ストレート	-11.2898
誤り	-11.2899
をもたらした	-11.2901
盾	-11.2901
バナ	-11.2905
告げ	-11.2907
思われ	-11.2908
最終回	-11.291
並びに	-11.2911
のなかで	-11.2911
ガメ	-11.2913
申し出	-11.2913
天神	-11.2914
マリン	-11.2916
ではないが	-11.2918
ata	-11.2919
電磁	-11.2921
エリック	-11.2922
フランツ	-11.2925
チェロ	-11.2926
切断	-11.2927
ジョイ	-11.2927
常務	-11.2927
ank	-11.293
続けて	-11.2931
1882	-11.2931
OK	-11.2932
1860	-11.2933
序盤	-11.2935
ダンサー	-11.2937
日立	-11.2939
を介して	-11.294
ライオン	-11.2941
真実	-11.2942
普通の	-11.2946
干渉	-11.2947
農場	-11.2947
年夏	-11.2948
別に	-11.2948
行っていた	-11.295
報酬	-11.2952
南京	-11.2956
神社の	-11.2956
ny	-11.2957
同校	-11.2958
du	-11.2959
秩序	-11.2959
首長	-11.2962
日本の元	-11.2964
名の由来	-11.2964
に移った	-11.2964
巡目	-11.2965
赤色	-11.2966
リアス	-11.2967
コンパクト	-11.2967
Or	-11.2967
荷物	-11.2968
胃	-11.297
突撃	-11.2971
粗	-11.2971
した結果	-11.2972
を繰り広げ	-11.2973
アリー	-11.2973
彗星	-11.2974
が成立した	-11.2975
貫通	-11.2976
ッチャー	-11.2977
すい	-11.2978
ust	-11.2978
トリック	-11.298
家康	-11.298
さら	-11.298
擁立	-11.2981
リントン	-11.2982
の前で	-11.2983
彰	-11.2983
。1991	-11.2983
イニング	-11.2985
に興味	-11.2985
津波	-11.2986
と見なされ	-11.2987
▁1975	-11.2987
週末	-11.2987
の愛称	-11.299
表示される	-11.299
されていなかった	-11.299
続けていた	-11.2991
発売元は	-11.2991
ものが多い	-11.2993
通称は	-11.2993
すみ	-11.2994
中華	-11.2994
直前の	-11.2994
▁1976	-11.2995
MG	-11.2995
私の	-11.2996
独裁	-11.2996
明石	-11.3001
前年の	-11.3002
UR	-11.3002
公募	-11.3002
住む	-11.3003
車庫	-11.3005
送られた	-11.3005
両が	-11.3006
していたこと	-11.3007
テレビ放送	-11.3007
ger	-11.3007
光学	-11.301
付けられ	-11.301
357	-11.301
マネジメント	-11.3013
と思う	-11.3014
気動車	-11.3014
予定である	-11.3017
再婚	-11.3017
レアル	-11.3019
メニュー	-11.3019
ko	-11.302
謎の	-11.302
▁主に	-11.302
勢い	-11.302
況	-11.3021
どんな	-11.3022
王妃	-11.3023
歴史家	-11.3023
650	-11.3023
の中心地	-11.3025
sta	-11.3026
佐世保	-11.3026
生存	-11.3027
決戦	-11.3027
クリスチャン	-11.3028
文政	-11.3028
ていき	-11.3029
貧困	-11.303
あや	-11.3031
隈	-11.3032
危	-11.3035
警察官	-11.3036
理由として	-11.3036
貼	-11.3036
しまった	-11.3037
展望	-11.3038
柔	-11.3039
ei	-11.3041
政務	-11.3042
を落とし	-11.3042
小学館	-11.3043
乗車券	-11.3045
use	-11.3046
▁OF	-11.3047
を獲得する	-11.3049
こうとうがっこう	-11.3049
の一種である	-11.305
悠	-11.3054
をもたらす	-11.3056
をとり	-11.3056
の一部は	-11.3057
▁13	-11.3058
プリン	-11.3058
玩具	-11.3059
好み	-11.3062
kW	-11.3063
act	-11.3063
音響	-11.3065
育った	-11.3065
矛盾	-11.3066
親衛隊	-11.3066
同地	-11.3068
天下	-11.3069
崩れ	-11.307
現在に至る	-11.3072
現役を引退	-11.3072
世界的に	-11.3072
を受けていた	-11.3078
飲料	-11.3078
は無く	-11.3079
ire	-11.3082
誰も	-11.3083
、1947	-11.3083
知的	-11.3084
形電車	-11.3084
ade	-11.3085
キーボード	-11.3087
に反対し	-11.3087
塗り	-11.3091
グマ	-11.3091
なくなって	-11.3092
保全	-11.3093
大久保	-11.3094
救済	-11.3096
をつける	-11.3096
UC	-11.3098
郷土	-11.3099
指令	-11.3099
鰭	-11.3099
ポルノ	-11.3101
2.0	-11.3103
展開している	-11.3104
の養子	-11.3106
メディ	-11.3107
OD	-11.3107
二人は	-11.3108
コッ	-11.3109
渓谷	-11.3109
高木	-11.3109
本形式	-11.3109
きり	-11.3109
を通過し	-11.311
番手	-11.3114
勾配	-11.3115
ドルフ	-11.3115
マット	-11.3116
絞	-11.3117
小島	-11.3117
支線	-11.3118
ハインリヒ	-11.3119
賃金	-11.3121
赤字	-11.3125
スキル	-11.3126
ブドウ	-11.3129
ホームページ	-11.3133
一貫	-11.3139
上場	-11.3139
rt	-11.314
考えられ	-11.3143
VS	-11.3143
が用意され	-11.3146
憧れ	-11.3146
開戦	-11.3147
チームメイト	-11.3151
ストア	-11.3153
メンバーの	-11.3155
貴重な	-11.3158
フェイ	-11.3159
を指し	-11.3159
取扱	-11.316
マネー	-11.3162
で行う	-11.3163
のではなく	-11.3165
に転向	-11.3165
求められ	-11.3168
地として	-11.3171
、1963	-11.3171
億ドル	-11.3172
ライアン	-11.3173
毎月	-11.3174
yl	-11.3174
ばかりの	-11.3177
を結成し	-11.318
象徴	-11.318
人の基礎自治体	-11.318
凶	-11.3181
上述の	-11.3181
赴任	-11.3182
1879	-11.3182
牟	-11.3182
1874	-11.3182
機材	-11.3183
語源	-11.3183
俣	-11.3183
大山	-11.3186
ピエ	-11.3186
入居	-11.3186
レイク	-11.3187
▁=	-11.3189
使える	-11.3189
不定期	-11.3192
薬剤	-11.3192
ざる	-11.3193
クラウ	-11.3195
▁→	-11.3198
バカ	-11.3203
作品として	-11.3203
地域では	-11.3204
中佐	-11.3207
に復帰した	-11.3207
母体	-11.3207
個性	-11.3208
朝鮮半島	-11.321
が導入され	-11.321
懲役	-11.321
内外	-11.3214
建物は	-11.3214
アレクサンドル	-11.3215
ピアニスト	-11.3216
397	-11.3217
が決まった	-11.3218
の指導者	-11.322
したもので	-11.3222
支社	-11.3223
家系	-11.3224
預	-11.3225
▁mm	-11.3227
アルゴリズム	-11.3227
着工	-11.3227
ini	-11.3228
WBA	-11.3228
箱根	-11.3229
前進	-11.323
MVP	-11.3231
運行されている	-11.3231
▁1971	-11.3233
町域	-11.3237
を越えて	-11.3237
分から	-11.3239
鉱物	-11.3239
ern	-11.3239
1800	-11.324
ワード	-11.3241
を高め	-11.3243
されてしまう	-11.3243
はら	-11.3244
植物の	-11.3245
睦	-11.3249
ローラ	-11.3252
いけ	-11.3252
の演奏	-11.3253
キッ	-11.3254
ound	-11.3254
主流	-11.3255
づき	-11.3256
薩摩	-11.3256
を取った	-11.3258
製作した	-11.3258
を奪われ	-11.3262
ガム	-11.3262
親子	-11.3263
人であり	-11.3265
あて	-11.3266
コラボレーション	-11.3267
のだが	-11.3268
食用	-11.3268
年頃から	-11.3269
国際的な	-11.327
の製作	-11.3271
典型的な	-11.3272
橋梁	-11.3273
の起源	-11.3273
こちらは	-11.3274
356	-11.3275
相互作用	-11.3278
の拠点	-11.328
グア	-11.328
コレ	-11.3281
ドック	-11.3281
は無かった	-11.3286
方法は	-11.3287
エビ	-11.3287
役職	-11.3289
出来た	-11.3289
替わり	-11.3289
倭	-11.329
大学校	-11.329
階に	-11.3292
松井	-11.3293
able	-11.3293
京成	-11.3294
を取得した	-11.3295
ない場合	-11.3298
告白	-11.33
1864	-11.3301
引き上げ	-11.3303
仮想	-11.3307
を制作	-11.331
の命令	-11.3313
伊東	-11.3313
▁To	-11.3314
第五	-11.3315
郵便番号は	-11.3316
初勝利	-11.3316
に建設された	-11.3318
切って	-11.3319
峡	-11.3321
int	-11.3323
還元	-11.3325
1881	-11.3325
表明	-11.3327
cy	-11.3328
記者会見	-11.3332
、1948	-11.3332
作られる	-11.3334
頻度	-11.3334
批評	-11.3335
メロディ	-11.3336
首都圏	-11.3336
に残る	-11.3336
合った	-11.3338
コイ	-11.3338
十分に	-11.3338
審査員	-11.3341
ホット	-11.3342
ムハンマド	-11.3343
庶	-11.3344
ッシャー	-11.3347
失われた	-11.3348
道の駅	-11.3349
あの	-11.335
住吉	-11.335
が得られる	-11.335
軽減	-11.3351
工場で	-11.3351
名詞	-11.3352
をテーマに	-11.3355
しまい	-11.3355
成績は	-11.3358
しげ	-11.3361
ザール	-11.3361
ネーム	-11.3362
の中間	-11.3362
を加え	-11.3362
終了し	-11.3364
周囲に	-11.3365
ニウム	-11.3366
タイムズ	-11.3366
と記され	-11.3367
所有する	-11.3368
エレベーター	-11.3369
幅広く	-11.3369
化して	-11.3369
を通って	-11.337
が掲載され	-11.337
係数	-11.337
架空の	-11.3372
しておらず	-11.3376
珍しく	-11.3377
3.5	-11.3377
働いた	-11.3378
日本海軍	-11.3379
述べ	-11.338
に行った	-11.338
▁di	-11.3384
実に	-11.3386
という設定	-11.3387
入賞	-11.3388
ムーン	-11.3388
症候群	-11.339
していて	-11.3391
二十	-11.3392
今度は	-11.3392
通商	-11.3397
▁1977	-11.3397
ずっと	-11.3397
キット	-11.3397
博士課程	-11.3397
窪	-11.3397
ジェリー	-11.3398
くなった	-11.3399
樹立	-11.3399
コモ	-11.3399
という説	-11.3399
牙	-11.3401
廃止され	-11.3401
センチメートル	-11.3401
万人の	-11.3404
不動	-11.3406
粒	-11.3407
出てくる	-11.3408
鑑賞	-11.3408
を卒業後	-11.3409
BOX	-11.3409
He	-11.341
ブレイク	-11.341
小学	-11.3412
同級生	-11.3413
民俗	-11.3415
を作って	-11.3417
主催の	-11.3417
リース	-11.3417
志願	-11.3418
プロレスラー	-11.342
、1962	-11.3422
テイラー	-11.3423
日本での	-11.3425
安倍	-11.3425
ネコ	-11.3427
の象徴	-11.3427
〜」	-11.3428
州刺史	-11.3429
競技大会	-11.343
ブッシュ	-11.3431
格納	-11.3431
の名で	-11.3432
奪三振	-11.3433
棋士	-11.3434
カメ	-11.3434
農地	-11.3437
受けた	-11.3437
訪れた	-11.3438
氏族	-11.3438
史上初の	-11.3439
郡区	-11.3442
勧告	-11.3442
ジロ	-11.3443
の一つとして	-11.3443
ったもの	-11.3444
られず	-11.3446
欠場	-11.3447
扶	-11.3448
チャンピオンズリーグ	-11.345
ame	-11.345
キョ	-11.3451
穏	-11.3452
アイデア	-11.3452
血液	-11.3453
、1944	-11.3454
枯	-11.3454
止ま	-11.3454
ロット	-11.3455
坑	-11.3457
辞退	-11.3459
Cr	-11.3459
ージュ	-11.3459
ファイト	-11.3461
バース	-11.3461
本拠	-11.3461
▁1969	-11.3464
になってから	-11.3464
商業施設	-11.3465
というのは	-11.347
ホッ	-11.347
奪取	-11.3471
無視	-11.3471
追跡	-11.3471
写本	-11.3471
を決定した	-11.3472
に巻き込まれ	-11.348
金銭	-11.348
衰	-11.3482
回想	-11.3482
厩舎	-11.3484
が起きた	-11.3484
バイト	-11.3484
含め	-11.3485
ウェア	-11.3485
もう一	-11.3487
言えば	-11.3487
主権	-11.3488
科学技術	-11.3488
小泉	-11.3489
運搬	-11.3489
395	-11.3492
見直し	-11.3493
三丁目	-11.3494
電機	-11.3494
進展	-11.3495
乗降	-11.3495
ari	-11.3498
PI	-11.3499
ニオン	-11.35
バルブ	-11.35
潜水	-11.35
現在まで	-11.3501
を卒業し	-11.3501
高等学校卒業	-11.3502
背後	-11.3502
よって	-11.3503
を見せる	-11.3503
旗艦	-11.3503
▁1974	-11.3506
her	-11.3507
独自に	-11.3507
アルメニア	-11.3509
リッツ	-11.351
のあった	-11.3511
残存	-11.3511
哲学者	-11.3512
定期的に	-11.3514
師匠	-11.3514
を継承した	-11.3515
永久	-11.3515
撤退した	-11.3518
収録されている	-11.3519
他方	-11.3519
てくれる	-11.352
と信じ	-11.352
、1961	-11.352
殺人事件	-11.3523
と称される	-11.3524
越前	-11.3524
シエ	-11.3529
スターリン	-11.3529
発行された	-11.3529
に向けた	-11.3532
標的	-11.3532
使用できる	-11.3532
の組み合わせ	-11.3532
平等	-11.3533
ことが可能	-11.3533
El	-11.3535
に初めて	-11.354
は中華人民共和国	-11.3541
と称し	-11.3542
oll	-11.3542
がち	-11.3544
▁1968	-11.3545
実戦	-11.3546
をかけた	-11.3546
1877	-11.3547
1875	-11.3548
萌	-11.3548
1862	-11.3549
を余儀なくされた	-11.3554
バージニア州	-11.3557
投球	-11.3557
尽力	-11.3559
を超えた	-11.356
出身のサッカー選手	-11.3562
するのが	-11.3563
○	-11.3567
役を演じ	-11.3568
種別	-11.3568
の友人	-11.3568
メロ	-11.3568
最下位	-11.3568
免疫	-11.3571
シマ	-11.3571
gi	-11.3571
出会った	-11.3571
閉店	-11.3571
斜面	-11.3573
赦	-11.3574
Google	-11.3578
掘	-11.3578
続けられ	-11.3579
赴	-11.3579
ドス	-11.3581
が行われていた	-11.3582
タマ	-11.3582
ash	-11.3584
を築いた	-11.3584
、1949	-11.3584
見ることができる	-11.3585
南北に	-11.3587
工程	-11.3588
雀	-11.3588
ごとの	-11.3588
北条氏	-11.3589
"』	-11.3591
浸透	-11.3593
ウォール	-11.3595
ソール	-11.3596
侵	-11.3597
呪	-11.3597
を与えられ	-11.3597
パンチ	-11.36
国土交通省	-11.36
の主張	-11.36
様な	-11.36
フン	-11.36
加熱	-11.36
血管	-11.3601
379	-11.3602
下院	-11.3603
整数	-11.3603
債権	-11.3603
ita	-11.3606
を演じ	-11.3606
覇	-11.3608
頃まで	-11.3608
ウィルソン	-11.3609
管制	-11.361
乗務員	-11.361
交際	-11.3611
初頭	-11.3611
グレン	-11.3615
されることとなった	-11.3615
消化	-11.3616
年代初頭	-11.3617
中継局	-11.3617
本来は	-11.3618
リメイク	-11.3619
ディスプレイ	-11.3619
裁判官	-11.3619
レンタル	-11.3627
▁出典	-11.3628
雇	-11.3629
ref	-11.3629
外科	-11.3629
ベック	-11.363
Fi	-11.3631
産物	-11.3632
宿泊	-11.3633
分かる	-11.3634
ove	-11.3634
を実行	-11.3635
師範学校	-11.3635
一気に	-11.3635
生え	-11.3635
代わり	-11.3637
ヘビー級	-11.3637
To	-11.364
カート	-11.3641
韻	-11.3644
不全	-11.3644
神学	-11.3646
リーグ優勝	-11.3648
アビ	-11.3651
シュタット	-11.3652
八王子	-11.3654
システムは	-11.3654
年までの	-11.3654
セキュリティ	-11.3654
滑走路	-11.3656
鳩	-11.3656
の意向	-11.3658
変異	-11.3659
デバイス	-11.3662
AKB	-11.3663
地面	-11.3664
書いている	-11.3665
うこと	-11.3665
で構成されている	-11.3666
ファーム	-11.3666
、1930	-11.3668
内容を	-11.3669
form	-11.3671
に生息する	-11.3671
一揆	-11.3673
を示している	-11.3673
皇族	-11.3674
父親の	-11.3674
ぐち	-11.3675
番号は	-11.3675
彼らが	-11.3675
軽量	-11.3676
ont	-11.3676
年代前半	-11.3676
を送った	-11.3677
SR	-11.3678
気圧	-11.3678
採掘	-11.3679
ムン	-11.3679
理念	-11.368
設計された	-11.368
旗本	-11.3681
地方裁判所	-11.3683
ビート	-11.3686
馬力	-11.3686
をそのまま	-11.3687
名乗り	-11.3687
切られ	-11.3687
ウルフ	-11.3689
_3	-11.369
FW	-11.3691
狩猟	-11.3692
シュト	-11.3694
ung	-11.3695
▁No	-11.3697
婿	-11.3699
ライオンズ	-11.37
ストック	-11.3701
訪れ	-11.3701
ゴリ	-11.3702
シュル	-11.3702
フォワード	-11.3703
せて	-11.3704
ピオ	-11.3705
部位	-11.3705
ピク	-11.3705
番人気	-11.3705
オリジナルの	-11.3706
と合併し	-11.3708
従五位下	-11.3709
に対しても	-11.371
三条	-11.3711
パシフィック	-11.3712
デッキ	-11.3713
リン酸	-11.3714
参議院	-11.3716
といわれ	-11.3717
藤井	-11.3718
カレー	-11.3718
順序	-11.3719
菊池	-11.3719
運転台	-11.3722
の治療	-11.3723
ペレ	-11.3726
本作では	-11.3726
自動的に	-11.3727
BI	-11.3728
1863	-11.3728
会う	-11.3729
リッジ	-11.373
じゃない	-11.373
津軽	-11.3733
。1989	-11.3733
こともあって	-11.3734
、1940	-11.3734
盟	-11.3737
ティル	-11.3737
ハナ	-11.3738
μ	-11.3738
に該当する	-11.374
ラヴ	-11.3741
tri	-11.3741
アプローチ	-11.3744
アンティ	-11.3745
に対応した	-11.3745
購入した	-11.3745
俳	-11.3746
化されている	-11.3747
ポンプ	-11.3748
ライス	-11.3748
に選出され	-11.3749
と説明	-11.3749
GB	-11.3749
1883	-11.375
の割合	-11.375
英文	-11.3751
立てた	-11.3751
▁For	-11.3752
東京府	-11.3755
主教	-11.3756
遅く	-11.3756
1861	-11.3759
上がって	-11.3759
吉川	-11.3761
武蔵野	-11.3761
爪	-11.3762
Fe	-11.3763
誇	-11.3763
ホセ	-11.3763
彼女が	-11.3766
ワイルド	-11.3767
......	-11.3769
原田	-11.3772
でプレー	-11.3772
Su	-11.3773
する方法	-11.3774
ヴィス	-11.3774
療養	-11.3774
起動	-11.3775
どのような	-11.3775
地理	-11.3776
救急	-11.3777
生じ	-11.3779
習得	-11.3779
直轄	-11.3779
企業である	-11.3781
、1959	-11.3781
から離れ	-11.3781
手続	-11.3785
フランソワ	-11.3786
付与	-11.3786
となるが	-11.3786
の形状	-11.3786
アーム	-11.3786
対処	-11.3787
が開催された	-11.3788
フード	-11.379
尼	-11.3792
ポルト	-11.3793
を発揮し	-11.3794
実際は	-11.3795
書類	-11.3796
年の国勢調査	-11.3799
そもそも	-11.3799
この番組	-11.38
歓	-11.3801
が低い	-11.3801
目撃	-11.3803
東アジア	-11.3803
いっ	-11.3805
プレーヤー	-11.3805
ノキ	-11.3805
hy	-11.3806
慶應義塾大学	-11.3808
建てられ	-11.3808
指数	-11.3809
大塚	-11.3809
と判断し	-11.3811
改築	-11.3811
まれる	-11.3812
上空	-11.3812
暁	-11.3814
、1958	-11.3814
用地	-11.3814
社会学	-11.3815
遥	-11.3816
VER	-11.3817
修士	-11.3818
Linux	-11.3819
▁よし	-11.382
水泳	-11.3822
チケット	-11.3823
連動	-11.3824
398	-11.3828
ラール	-11.3828
防災	-11.3829
tal	-11.3829
得点を挙げ	-11.383
知らない	-11.3832
洪	-11.3832
dia	-11.3833
重ね	-11.3833
モラ	-11.3835
寛政	-11.3836
暖	-11.3836
船橋	-11.3836
予定だったが	-11.3837
面では	-11.3838
聞いて	-11.3838
横綱	-11.3838
近隣の	-11.3838
なかなか	-11.3838
赤軍	-11.3838
粛	-11.384
の撮影	-11.3841
明確な	-11.3842
の名称は	-11.3842
午	-11.3843
早朝	-11.3845
軍用	-11.3847
倒産	-11.3848
355	-11.3849
和平	-11.3849
に関する法律	-11.3849
を抑え	-11.3849
孤立	-11.385
再興	-11.3852
プレゼント	-11.3852
捕食	-11.3854
と表記される	-11.3855
ユリ	-11.3856
海水	-11.3857
邸宅	-11.3857
書房	-11.3861
定住	-11.3862
ストリー	-11.3864
ボーイズ	-11.3866
が可能な	-11.3869
を実施した	-11.3869
首席	-11.387
かげ	-11.3871
を深め	-11.3871
シーズンには	-11.3872
招聘	-11.3873
てはならない	-11.3873
の準備	-11.3875
梶	-11.3876
聖堂	-11.3876
387	-11.3876
MD	-11.3877
食糧	-11.3877
神戸市	-11.3877
外野手	-11.3877
へい	-11.3877
"(	-11.388
CL	-11.3881
に至って	-11.3882
VA	-11.3883
オーク	-11.3884
UP	-11.3884
名鉄	-11.3885
レイン	-11.3887
西暦	-11.3887
最高裁判所	-11.3891
事前に	-11.3893
ナール	-11.3894
と考えていた	-11.3895
で構成され	-11.3895
ッシー	-11.3896
ことができなかった	-11.3896
例である	-11.3896
誤解	-11.3896
ピング	-11.3896
立憲	-11.3896
の紹介	-11.3897
と並んで	-11.3899
に大きく	-11.3899
どちらか	-11.39
vol	-11.39
RY	-11.3901
明るい	-11.3903
バブル	-11.3905
輸	-11.3906
霞	-11.3906
ヴィクトリア	-11.3908
月号から	-11.3909
BU	-11.391
前後の	-11.391
困難な	-11.3911
哀	-11.3915
積分	-11.3916
テクノロジー	-11.3917
囲碁	-11.3918
一門	-11.392
犠牲者	-11.392
補償	-11.3922
チェスター	-11.3925
半径	-11.3925
をマーク	-11.3928
建てられた	-11.3928
幼児	-11.3929
サクラ	-11.3929
仮定	-11.393
190	-11.3932
を進める	-11.3932
西村	-11.3933
堆積	-11.3934
邑	-11.3935
維	-11.3936
アフガニスタン	-11.3937
台地	-11.3938
線の駅	-11.3938
サード	-11.394
385	-11.3942
ッポ	-11.3942
の妹	-11.3943
パキスタン	-11.3943
クン	-11.3943
FR	-11.3944
パンク	-11.3945
補強	-11.3946
安田	-11.3946
大内	-11.3946
工夫	-11.3947
時代劇	-11.3947
クサ	-11.3948
連続で	-11.3949
らしく	-11.395
初当選	-11.395
エクスプレス	-11.3951
▁上記の	-11.3951
殺害された	-11.3952
制圧	-11.3952
ドレス	-11.3952
に直接	-11.3956
正常	-11.3956
ドクター	-11.3957
事務局	-11.3957
スワ	-11.3957
デラ	-11.396
タービン	-11.3961
エージェント	-11.3961
ときには	-11.3962
飛行隊	-11.3962
杜	-11.3963
リンカーン	-11.3963
教団	-11.3964
人格	-11.3964
用品	-11.3965
も含めて	-11.3966
台詞	-11.397
十両	-11.397
されることがある	-11.3971
はん	-11.3972
回目	-11.3974
を確保する	-11.3974
月中旬	-11.3975
蒸	-11.3975
マネ	-11.3976
高地	-11.3978
建て	-11.3978
衡	-11.3979
薄い	-11.398
ボーイング	-11.3982
も含む	-11.3983
慢	-11.3984
sen	-11.3984
千人	-11.3984
寄贈	-11.3984
寿命	-11.3985
官房	-11.3985
Mac	-11.3987
他人	-11.3988
行なわれた	-11.399
制作した	-11.399
乗組員	-11.3992
かせる	-11.3993
石田	-11.3995
環状	-11.3997
スピン	-11.3997
はならなかった	-11.3998
ばし	-11.4
元帥	-11.4002
ムラ	-11.4002
多大な	-11.4003
利点	-11.4004
匿	-11.4004
宇宙船	-11.4007
名目	-11.4008
本当に	-11.4008
酔	-11.4008
制服	-11.401
ジョセフ	-11.401
製作所	-11.4012
パーティ	-11.4012
擁護	-11.4013
アルト	-11.4014
エンターテインメント	-11.4014
警視庁	-11.4015
元は	-11.4017
野町	-11.4018
助言	-11.4019
が進み	-11.402
育ち	-11.402
文学者	-11.402
各国の	-11.4022
人組	-11.4022
が設立され	-11.4023
この後	-11.4025
トゥール	-11.4026
山町	-11.4028
あた	-11.4028
差異	-11.4029
が含まれている	-11.403
進軍	-11.4033
生育	-11.4034
に留学	-11.4034
対照	-11.4034
忠実	-11.4035
合法	-11.4036
告知	-11.4037
入れ替え	-11.4037
Li	-11.4039
実態	-11.4042
定め	-11.4043
Twitter	-11.4045
やく	-11.4047
郡山	-11.4047
められた	-11.4049
アナウンス	-11.405
混同	-11.405
塞	-11.405
難民	-11.4052
構内	-11.4052
が原因で	-11.4053
魔女	-11.4053
弾圧	-11.4054
ダール	-11.4055
特徴的な	-11.4058
横山	-11.4058
日程	-11.4059
伝える	-11.4059
最寄り	-11.406
進み	-11.406
撃退	-11.4062
一般的には	-11.4062
くろ	-11.4063
高校卒業後	-11.4064
を買い	-11.4066
NFL	-11.4067
死に	-11.4067
さらなる	-11.4068
南朝	-11.4069
-19	-11.407
ple	-11.407
ポロ	-11.407
を提出し	-11.4071
に変更され	-11.4073
過ごす	-11.4075
アグ	-11.4075
開校	-11.4076
異動	-11.4077
伝わっ	-11.4082
嚢	-11.4082
書簡	-11.4083
知られていた	-11.4084
マケドニア	-11.4087
耐久	-11.4088
自由党	-11.4089
審議会	-11.4089
一等	-11.4091
ズー	-11.4092
に変更した	-11.4093
破綻	-11.4093
灘	-11.4095
題名	-11.4095
浅野	-11.4095
の登場人物	-11.4095
かなかった	-11.4096
はすでに	-11.4099
描かれる	-11.4099
全車	-11.41
調節	-11.4101
全国大会	-11.4101
AG	-11.4102
オートバイ	-11.4104
unt	-11.4106
モジュール	-11.4107
ダグラス	-11.4107
日本一	-11.4107
ヒロ	-11.4108
京王	-11.4109
サンデー	-11.4109
火力	-11.4109
脅	-11.4111
388	-11.4113
武帝	-11.4114
北上	-11.4114
上げて	-11.4114
シラ	-11.4115
稚	-11.4116
はかなり	-11.4119
パール	-11.4119
部隊が	-11.4121
に搭載され	-11.4122
となったため	-11.4124
同市	-11.4125
されたのは	-11.4126
ソフトバンク	-11.4127
開通した	-11.4127
マルク	-11.4128
動脈	-11.4128
小型の	-11.4128
硫黄	-11.4129
を皮切りに	-11.413
ピッ	-11.4132
円形	-11.4134
選出された	-11.4134
に収録されている	-11.4135
覧	-11.4136
を利用し	-11.4136
ずれ	-11.4136
に限られ	-11.4136
ost	-11.4137
上方	-11.4137
FS	-11.4137
ッサー	-11.4138
ここから	-11.4139
わざ	-11.4139
シミュレーション	-11.4139
通常盤	-11.4141
ものではなく	-11.4142
フロリダ	-11.4142
それほど	-11.4143
」("	-11.4144
プト	-11.4144
前橋	-11.4145
どころ	-11.4145
工科大学	-11.4145
リスナー	-11.4146
副会長	-11.4147
出身の元プロ野球選手	-11.4149
浸	-11.415
鱗	-11.4151
の弟子	-11.4153
本尊	-11.4154
gu	-11.4154
聡	-11.4155
説がある	-11.4155
に編入された	-11.4155
ハンス	-11.4156
投下	-11.4157
と共演	-11.4158
ā	-11.4158
1867	-11.416
7000	-11.4161
今作	-11.4161
を参照のこと	-11.4162
ous	-11.4162
コイン	-11.4163
という形で	-11.4165
歌った	-11.4165
ナレーション	-11.4166
探索	-11.4166
様々	-11.4168
なみ	-11.4169
が残る	-11.417
槽	-11.4171
恐竜	-11.4173
日午前	-11.4173
ヘッセン	-11.4174
するような	-11.4176
攻勢	-11.4176
放射線	-11.4177
がおり	-11.4178
洞窟	-11.4179
ハミルトン	-11.418
司祭	-11.4182
今日の	-11.4185
閣僚	-11.4185
柴田	-11.4186
も務めた	-11.4186
二度	-11.4187
ピッチ	-11.4188
子爵	-11.4189
供用	-11.4191
あれ	-11.4192
太鼓	-11.4192
ロワ	-11.4193
の強化	-11.4193
▁1944	-11.4193
拳銃	-11.4196
はそのまま	-11.4197
任官	-11.4199
利用する	-11.42
かかり	-11.4201
測量	-11.4202
標識	-11.4203
途上	-11.4206
おらず	-11.4208
ボランティア	-11.4208
深刻な	-11.4209
オブジェクト	-11.421
ことなど	-11.4212
ジェル	-11.4213
と発言し	-11.4217
のいずれか	-11.4217
を防ぐため	-11.4218
青い	-11.4218
マンチェスター	-11.4218
ない限り	-11.4219
使用している	-11.4222
を巡って	-11.4222
枚目の	-11.4223
年末に	-11.4225
畜	-11.4228
福寺	-11.4228
車輪	-11.4228
ルーキー	-11.4228
cr	-11.423
ウマ	-11.4231
ステル	-11.4231
世話	-11.4231
En	-11.4231
川越	-11.4231
サッカークラブ	-11.4231
必須	-11.4234
交付	-11.4235
メリー	-11.4236
デール	-11.4237
▁市立小	-11.424
ジョージア	-11.424
世紀には	-11.4241
略奪	-11.4246
新興	-11.4247
首脳	-11.4247
あお	-11.4249
強豪	-11.425
ディーゼル	-11.4252
同人	-11.4254
フライ級	-11.4255
集積	-11.4256
ピース	-11.4256
作動	-11.4259
安定した	-11.4259
Mk	-11.4259
ハーバー	-11.4259
ざい	-11.4262
世代の	-11.4262
るような	-11.4263
事前	-11.4264
欠点	-11.4265
停留場	-11.4266
この結果	-11.4268
得られ	-11.4268
と批判	-11.4269
全体で	-11.427
プロ入り	-11.4271
をつけた	-11.4272
シベリア	-11.4273
派遣された	-11.4273
旭川	-11.4274
殴	-11.4274
有数の	-11.4275
均	-11.4275
が発見された	-11.4277
の創設	-11.4277
といって	-11.4279
サハ	-11.4279
拍	-11.428
月曜日	-11.428
としても知られ	-11.4281
ネーション	-11.4282
ドコモ	-11.4282
ことがあった	-11.4283
を有している	-11.4283
RNA	-11.4284
道徳	-11.4287
運び	-11.4287
а	-11.4288
翻	-11.4289
ということで	-11.429
年度から	-11.429
による日本の	-11.4291
グリー	-11.4292
窓口	-11.4293
下関	-11.4293
を対象に	-11.4294
を結び	-11.4294
完成した	-11.4294
掘り	-11.4295
するようになる	-11.4297
であったこと	-11.4298
一行	-11.4301
意志	-11.4303
番艦	-11.4304
実証	-11.4304
交響曲	-11.4305
log	-11.4306
ウォン	-11.4307
肌	-11.4307
ler	-11.4309
扱われ	-11.4309
安全性	-11.4311
ミズ	-11.4312
として知られ	-11.4313
▁昭和	-11.4314
小田	-11.4315
付随	-11.4316
は以下の通りである	-11.432
保育	-11.4321
神々	-11.4321
ホス	-11.4321
に出走	-11.4321
ちょうど	-11.4321
岡本	-11.4321
破壊された	-11.4322
頼朝	-11.4323
鳥羽	-11.4324
脂	-11.4327
tu	-11.4328
ae	-11.4329
nes	-11.433
1200	-11.4331
完全移籍	-11.4331
丞	-11.4331
高温	-11.4332
キエフ	-11.4334
フランシス	-11.4334
させられた	-11.4335
が実施され	-11.4336
の教授	-11.4337
を認める	-11.4338
を助け	-11.4339
麺	-11.434
トロント	-11.4341
右側	-11.4341
難しく	-11.4341
ナビ	-11.4341
毅	-11.4342
ile	-11.4344
伝道	-11.4346
ビアン	-11.4346
▁隣接するコムーネは以下の通り	-11.4348
表す	-11.4349
アーチ	-11.435
天候	-11.4351
有馬	-11.4353
付けられている	-11.4353
書く	-11.4354
書いて	-11.4355
信頼性	-11.4355
写像	-11.4355
ジャイ	-11.4356
パロディ	-11.4357
小規模な	-11.4357
を問わず	-11.4359
最終戦	-11.436
ズル	-11.4363
に就任する	-11.4363
ok	-11.4363
JST	-11.4365
歩道	-11.4365
隣の	-11.4365
会見	-11.4366
するようになり	-11.4368
人物である	-11.4369
ローレンス	-11.4372
耶	-11.4374
ニシ	-11.4374
上院議員	-11.4374
トリノ	-11.4376
基幹	-11.4376
LL	-11.4378
とみられる	-11.4379
起工	-11.438
長を務めた	-11.438
バスク	-11.438
てつ	-11.4384
務める	-11.4386
小路	-11.4387
間接	-11.4388
御所	-11.4389
vo	-11.4389
ail	-11.439
がなされている	-11.4393
牧野	-11.4393
醸造	-11.4393
厳密に	-11.4394
可決	-11.4395
古くは	-11.4396
を伝える	-11.4397
サッカーリーグ	-11.4398
ミシシッピ	-11.4399
ひとつの	-11.44
クエスト	-11.4401
日向	-11.4401
不在	-11.4403
部門で	-11.4403
のではないかと	-11.4404
合わせる	-11.4405
帰国した	-11.4405
溜	-11.4406
筋肉	-11.4406
受け入れられ	-11.4409
所属事務所	-11.4411
世間	-11.4411
ギャグ	-11.4412
絶え	-11.4413
フェラーリ	-11.4414
開き	-11.4414
国際映画祭	-11.4414
を残している	-11.4415
自国	-11.4415
を手に入れ	-11.4417
ヶ谷	-11.442
悔	-11.4423
▁1964	-11.4425
抽選	-11.4426
▁1967	-11.4427
ザイ	-11.4427
徳川家康	-11.4427
中日	-11.4429
常陸	-11.443
が続く	-11.443
rea	-11.4431
得た	-11.4431
0||0||	-11.4432
ロッキー	-11.4433
デルタ	-11.4433
ナトリウム	-11.4434
悲劇	-11.4435
ゲームソフト	-11.4435
アルミ	-11.4435
を与えられた	-11.4438
侵害	-11.4439
ax	-11.4441
後者は	-11.4442
PK	-11.4442
湘南	-11.4442
露出	-11.4442
自称	-11.4443
を発見し	-11.4444
動く	-11.4445
OVA	-11.4445
じゅん	-11.4446
家屋	-11.4446
決められ	-11.4448
掲載されている	-11.4448
が生じた	-11.4449
に接する	-11.4449
おうと	-11.4449
投票で	-11.445
製薬	-11.4453
を連れて	-11.4455
トレン	-11.4455
酒井	-11.4457
三好	-11.4457
されることが多い	-11.4458
アポロ	-11.4459
でプレーし	-11.446
アリゾナ	-11.446
政界	-11.446
を定め	-11.4461
客室	-11.4461
立てられ	-11.4463
を名乗る	-11.4463
土器	-11.4463
に任じられた	-11.4465
文法	-11.4465
介護	-11.4466
嫌い	-11.4467
田園	-11.4469
水野	-11.447
藍	-11.4471
の一つで	-11.4471
スーツ	-11.4472
告発	-11.4473
が成立する	-11.4474
集まった	-11.4474
抄	-11.4474
などにも	-11.4475
祖先	-11.4476
アルプス	-11.4476
に当たって	-11.4478
各地に	-11.4479
あって	-11.4483
OT	-11.4484
外交官	-11.4485
具体的には	-11.4488
漏	-11.4488
緊張	-11.449
錬	-11.4491
高麗	-11.4493
憂	-11.4494
Ste	-11.4495
笑い	-11.4496
としての活動	-11.4498
与党	-11.4499
の分野で	-11.4499
系図	-11.4505
復讐	-11.4505
石原	-11.4506
Un	-11.4507
オウ	-11.4507
ラード	-11.4508
延び	-11.4509
ゥ	-11.4514
民営化	-11.4515
っていく	-11.4516
づくり	-11.4517
を確保し	-11.4517
氷河	-11.4518
集英社	-11.4519
八戸	-11.452
愛知県名古屋市	-11.4521
艦船	-11.4522
昨	-11.4523
高齢	-11.4523
惣	-11.4524
内務	-11.4524
官位は	-11.4525
を避けるため	-11.4526
うら	-11.4527
ケネディ	-11.4528
Ac	-11.4528
を相手に	-11.4529
に耐え	-11.4529
くれ	-11.4529
砲弾	-11.4532
メリット	-11.4532
狩り	-11.4534
国語	-11.4536
危険性	-11.4536
チュア	-11.4536
と見られる	-11.4537
ミドル	-11.4538
Th	-11.4538
ショッピングセンター	-11.4539
総理	-11.4539
が現れる	-11.4541
に移され	-11.4542
直ちに	-11.4542
ことにした	-11.4543
紙幣	-11.4544
を導入し	-11.4545
造船	-11.4547
絵本	-11.4549
が追加され	-11.4549
欲しい	-11.455
ハードウェア	-11.455
安芸	-11.4551
復旧	-11.4551
真っ	-11.4552
▁with	-11.4554
歳で死去	-11.4562
動物園	-11.4563
熊谷	-11.4566
フロリダ州	-11.4567
生産された	-11.4567
くなり	-11.4568
勝を挙げ	-11.4568
から成る	-11.4571
を命じられ	-11.4572
イギリス海軍	-11.4574
破産	-11.4575
近郊の	-11.4575
378	-11.4576
火星	-11.4579
オフに	-11.4579
ダート	-11.4579
獲得した	-11.458
に任じられ	-11.4581
藤沢	-11.4582
決断	-11.4585
ホロ	-11.4585
を支配し	-11.4589
生じた	-11.459
変遷	-11.4591
合体	-11.4593
公衆	-11.4593
ランダム	-11.4593
多少	-11.4594
賄	-11.4594
を上回る	-11.4594
原稿	-11.4594
菩薩	-11.4595
剥	-11.4595
ピカ	-11.4596
維新	-11.4598
フォーム	-11.46
木曽	-11.4601
を聞き	-11.4601
慕容	-11.4602
デッド	-11.4603
を走る	-11.4604
に代わり	-11.4605
ことができず	-11.4605
100%	-11.4606
側近	-11.4607
大夫	-11.4608
急遽	-11.4609
定められ	-11.4611
ことがあり	-11.4611
で活躍した	-11.4611
郡庁所在地	-11.4613
蜂	-11.4614
ないので	-11.4615
アップル	-11.4615
も同じ	-11.4615
豊富な	-11.4616
十郎	-11.4619
最長	-11.4621
蕭	-11.4621
遠藤	-11.4622
つとめ	-11.4624
在日	-11.4624
再選	-11.4625
だったという	-11.4626
東京都立	-11.4626
播磨	-11.4626
簿	-11.4628
割合	-11.463
ロードレース	-11.4631
後輩	-11.4631
Open	-11.4633
惨	-11.4634
ギャラリー	-11.4637
競技場	-11.4638
慣	-11.4638
入り口	-11.4639
色彩	-11.4639
委	-11.464
小規模	-11.464
食堂	-11.4643
一貫して	-11.4647
阿波	-11.4648
住人	-11.4649
セールス	-11.465
を高める	-11.4653
ッケン	-11.4657
目黒	-11.4657
コリ	-11.4658
1866	-11.466
わせる	-11.4662
現職	-11.4664
アカデミー賞	-11.4665
騎士団	-11.4665
を殺し	-11.4666
の無い	-11.4666
分かって	-11.4667
虹	-11.4667
と同等	-11.4668
オファー	-11.4669
かなりの	-11.467
が立ち	-11.4671
廣	-11.4672
ムービー	-11.4673
全世界	-11.4674
診	-11.4675
夷	-11.4676
以外で	-11.4676
建造された	-11.4677
ヴィッチ	-11.4679
収容所	-11.4679
反論	-11.468
を発し	-11.4681
▁ゆう	-11.4681
十八	-11.4685
ッリ	-11.4686
間違い	-11.4686
研究員	-11.4687
アジ	-11.4688
それらは	-11.4689
fer	-11.469
の著書	-11.469
ランス	-11.469
作目の	-11.4692
重い	-11.4693
イタリア語	-11.4693
日本政府	-11.4695
音楽家	-11.4695
ten	-11.4696
渡す	-11.4697
は完全に	-11.4697
科学的	-11.4697
分ける	-11.4698
が設立された	-11.4701
コーラス	-11.4702
断層	-11.4703
@	-11.4703
上げられ	-11.4704
コラム	-11.4705
ナイター	-11.4707
苑	-11.4707
ゆく	-11.4707
わけではなく	-11.4708
の一員として	-11.4708
左側	-11.4709
開店	-11.471
演じる	-11.4711
減少した	-11.4712
カーン	-11.4712
の名は	-11.4713
10%	-11.4714
との戦い	-11.4718
ファイア	-11.4718
設定された	-11.4718
販売された	-11.472
1865	-11.4723
終わって	-11.4723
ヨウ	-11.4724
配属	-11.4724
幾つかの	-11.4725
と思った	-11.4725
らく	-11.4725
毎日放送	-11.4726
加えられ	-11.4726
del	-11.4727
フォーマット	-11.4727
が使われる	-11.4731
これまでに	-11.4732
もはや	-11.4733
グッズ	-11.4735
大幅な	-11.4735
が出来	-11.4738
拒絶	-11.4739
Ge	-11.4741
計測	-11.4742
OB	-11.4744
を寄せ	-11.4748
受容体	-11.4748
,200	-11.4749
避け	-11.4751
つつも	-11.4751
を食べる	-11.4751
アパート	-11.4753
販売する	-11.4754
村山	-11.4754
腔	-11.4755
に続き	-11.4755
最後は	-11.4756
くじ	-11.4758
注文	-11.4758
ze	-11.476
トキ	-11.4762
を覚え	-11.4763
代謝	-11.4764
が設けられている	-11.4764
わずかに	-11.4764
ッケ	-11.4766
999	-11.4766
功労	-11.4767
0.1	-11.4768
援軍	-11.4768
オープンした	-11.4769
持続	-11.477
その際に	-11.4771
せつ	-11.4772
が放送された	-11.4773
売買	-11.4774
を送って	-11.4775
ヨシ	-11.4775
も多かった	-11.4776
が登場し	-11.4777
宇治	-11.4777
追求	-11.4777
渕	-11.4778
内務省	-11.4778
-00	-11.4778
兼務	-11.4779
背中	-11.478
傾向にある	-11.4781
に指定され	-11.4781
ています	-11.4782
栖	-11.4783
へ移籍した	-11.4784
移動する	-11.4784
階層	-11.4786
の管轄	-11.4788
など様々な	-11.4788
若松	-11.4789
媒体	-11.479
喜多	-11.4791
さく	-11.4791
の治世	-11.4792
諱	-11.4794
何度か	-11.4794
CK	-11.4795
幾何学	-11.4796
中京	-11.4796
に用いる	-11.4796
残っていた	-11.4798
北極	-11.4799
窮	-11.4799
を奪い	-11.48
解散した	-11.4801
配信された	-11.4801
景気	-11.4802
盲	-11.4809
アメ	-11.4811
ゆえに	-11.4812
秩父	-11.4813
われている	-11.4813
シンガーソングライター	-11.4814
凌	-11.4814
chi	-11.4815
アーク	-11.4816
ヤマハ	-11.4816
を維持する	-11.4816
おおむね	-11.4817
鎌	-11.482
に加わった	-11.4821
作成した	-11.4822
と呼んだ	-11.4823
の観点から	-11.4823
スタンダード	-11.4826
やってきた	-11.4826
イタリア共和国	-11.4828
Com	-11.4829
暮らす	-11.4829
集まる	-11.4831
ましい	-11.4831
任意	-11.4832
三人	-11.4833
ans	-11.4835
が廃止され	-11.4835
結婚式	-11.4835
危険な	-11.4836
を失う	-11.4837
と称した	-11.4837
行方不明	-11.4838
を全て	-11.4839
お互い	-11.484
を帯び	-11.4841
祖母	-11.4842
に転じた	-11.4842
を越える	-11.4847
情報番組	-11.4848
桓	-11.4848
▁1966	-11.4851
に際し	-11.4852
られなかった	-11.4852
をめぐる	-11.4852
ニウス	-11.4853
市議会	-11.4853
エントリー	-11.4854
砂糖	-11.4854
を引き起こす	-11.4854
叩き	-11.4855
容器	-11.4855
丹波	-11.4855
シュテ	-11.4855
縫	-11.4856
発見した	-11.4856
セリ	-11.4863
入りした	-11.4864
婚約	-11.4864
MBS	-11.4864
サロン	-11.4865
▁JAPAN	-11.4866
豊橋	-11.4867
バレ	-11.4867
に恵まれ	-11.4867
想像	-11.487
を認めた	-11.487
につれて	-11.4871
特有の	-11.4871
詳細な	-11.4872
ダラ	-11.4873
を起用	-11.4875
拘	-11.4877
だけである	-11.4877
中国人	-11.4878
ヒューストン	-11.4878
蓄積	-11.4882
ゲスト出演	-11.4883
日本の政治家	-11.4884
平安	-11.4885
明かし	-11.4885
試合に出場	-11.4885
掌	-11.4891
スタートした	-11.4892
duc	-11.4893
GR	-11.4893
を搭載する	-11.4893
立川	-11.4894
大阪市立	-11.4896
1850	-11.4897
公的	-11.4898
目立つ	-11.4898
ラーゼ	-11.4898
新生	-11.4902
を中心として	-11.4903
ハンドル	-11.4904
を知った	-11.4905
開設された	-11.4905
フランクフルト	-11.4906
帽子	-11.4907
連敗	-11.4909
関わった	-11.4909
にかけ	-11.4909
馬車	-11.491
ブール	-11.4911
げる	-11.4911
石垣	-11.4912
このアルバム	-11.4912
を踏まえ	-11.4913
伝記	-11.4914
マジ	-11.4916
をあげた	-11.4918
田原	-11.492
大敗	-11.4922
アラビア語	-11.4924
燃え	-11.4927
旅館	-11.4927
ワーナー	-11.4928
を聞いた	-11.4928
遺構	-11.4931
コロラド	-11.4931
教育委員会	-11.4932
体力	-11.4933
は一切	-11.4934
本人は	-11.4938
ナポリ	-11.4939
との契約	-11.4939
の呼称	-11.4943
線形	-11.4943
話す	-11.4944
デトロイト	-11.4945
支持者	-11.4947
進水	-11.4947
所管	-11.4948
陰謀	-11.4949
お笑い	-11.4949
嫡男	-11.4953
添え	-11.4954
高度な	-11.4954
中毒	-11.4954
を巡る	-11.4959
式典	-11.4959
シャツ	-11.4959
泡	-11.496
川上	-11.496
国旗	-11.4961
▁1965	-11.4961
換え	-11.4961
に定着	-11.4962
窒素	-11.4962
両側	-11.4962
に命じ	-11.4962
ピル	-11.4963
クラフト	-11.4963
にある公立小学校	-11.4963
枕	-11.4965
トミー	-11.4967
山内	-11.4969
に収録された	-11.4972
ターゲット	-11.4973
民事	-11.4975
ハリス	-11.4975
膨	-11.4976
キャップ	-11.4977
ink	-11.4977
思考	-11.4978
以降も	-11.4978
決まって	-11.498
府中	-11.498
ウラン	-11.498
フィッシュ	-11.4983
線型	-11.4985
位となり	-11.4986
手前	-11.4986
機動戦士ガンダム	-11.4988
の北側	-11.4989
十六	-11.499
を挙げている	-11.4991
モーニング	-11.4994
駅番号は	-11.4997
電動	-11.5
の成立	-11.5001
かぶ	-11.5001
想い	-11.5002
叶	-11.5002
を告げ	-11.5002
田辺	-11.5005
特別番組	-11.5006
ヶ丘	-11.5007
重要である	-11.5008
親しまれ	-11.5008
シェン	-11.5012
が与えられた	-11.5013
果て	-11.5014
割引	-11.5016
高かった	-11.5016
麻呂	-11.5017
KU	-11.5017
強調	-11.5018
ことも可能	-11.5019
太夫	-11.5019
ley	-11.502
戯曲	-11.502
{	-11.5021
講和	-11.5021
十一	-11.5021
に陥った	-11.5023
数少ない	-11.5025
万年前	-11.5026
作る	-11.5027
始動	-11.5027
ネズミ	-11.5031
スペクトル	-11.5032
を攻め	-11.5034
渋滞	-11.5036
を防ぐ	-11.5038
オリックス	-11.5039
にノミネートされ	-11.504
に出演し	-11.504
心配	-11.5041
ルノー	-11.5041
初回限定盤	-11.5043
に渡る	-11.5044
原始	-11.5045
自立	-11.5046
マーケティング	-11.5046
復活した	-11.5046
廟	-11.5048
水源	-11.5049
発揮	-11.5049
ろく	-11.5051
分野で	-11.5051
eb	-11.5051
突如	-11.5052
人目	-11.5052
系電車	-11.5052
社会人	-11.5053
に就いた	-11.5053
アシュ	-11.5053
不詳	-11.5053
RU	-11.5054
に完成した	-11.5056
Blu	-11.5057
日平均	-11.5058
優秀な	-11.5059
蹴	-11.5059
に応じ	-11.5059
フォックス	-11.506
することがある	-11.5061
どのように	-11.5062
先代	-11.5063
発見され	-11.5063
込まれる	-11.5063
徴収	-11.5064
川水系	-11.5066
見られない	-11.5074
文化的	-11.5074
地理学	-11.5074
上院	-11.5075
収穫	-11.5077
高い評価	-11.5079
軍艦	-11.508
展示されている	-11.5081
о	-11.5082
撰	-11.5084
と主張している	-11.5085
総称	-11.5086
テュー	-11.5086
一般的	-11.5088
正統	-11.509
ale	-11.5092
困	-11.5093
評論	-11.5094
改札口	-11.5095
FL	-11.5096
のほうが	-11.5097
各々	-11.5098
出場権	-11.5098
宰	-11.51
豊富	-11.5101
いずれの	-11.5102
ハロ	-11.5103
ani	-11.5103
超人	-11.5104
ソナタ	-11.5104
国内外	-11.5104
を引き起こし	-11.5104
東西に	-11.5104
を開いた	-11.5104
ツキ	-11.5105
に見える	-11.5106
朝鮮人	-11.5109
本数	-11.5109
エンジニア	-11.5109
海兵隊	-11.511
自作	-11.511
チーフ	-11.5111
アベニュー	-11.5116
を組んで	-11.5117
ALL	-11.5117
逸話	-11.5118
冷房	-11.5118
オットー	-11.5119
流用	-11.512
テレビ局	-11.512
州内	-11.5121
以外では	-11.5121
北アメリカ	-11.5121
駿河	-11.5121
パレスチナ	-11.5121
卒業生	-11.5123
慣習	-11.5123
出現する	-11.5124
遭遇	-11.5124
全曲	-11.5124
改称	-11.5125
Jo	-11.5128
考えられる	-11.5131
ことが多かった	-11.5131
マンハッタン	-11.5132
ウィーク	-11.5132
揃	-11.5133
和泉	-11.5134
金融機関	-11.5134
日本国	-11.5135
重大な	-11.5135
に編入	-11.5135
全土	-11.5138
1.0	-11.5139
股	-11.514
つながり	-11.514
に基づいた	-11.5142
演じ	-11.5142
実務	-11.5143
Uni	-11.5144
ボイス	-11.5144
津田	-11.5145
ノット	-11.5146
アメリカ陸軍	-11.5147
挨拶	-11.515
拡大した	-11.5151
木曜	-11.5151
カタルーニャ	-11.5152
ポスター	-11.5153
コーポレーション	-11.5154
増設	-11.5154
適切	-11.5155
労働党	-11.5156
顕著	-11.5157
せない	-11.5159
が建設され	-11.5159
少尉	-11.516
に終わる	-11.516
ニコライ	-11.516
エッセイ	-11.5161
に応え	-11.5162
アピール	-11.5162
白河	-11.5164
アニメ版	-11.5165
ミステリー	-11.5165
イソ	-11.5166
クィ	-11.5166
大王	-11.5167
大輔	-11.5167
バリエーション	-11.5168
後述する	-11.5168
Fl	-11.5168
前後に	-11.5172
来て	-11.5174
果たし	-11.5175
か国	-11.5175
南区	-11.5178
ライフル	-11.5178
inc	-11.518
主席	-11.5181
ルートヴィヒ	-11.5181
不利	-11.5183
特攻	-11.5184
の子会社	-11.5185
引き分け	-11.5186
絹	-11.5187
酒造	-11.5188
茅	-11.5188
転用	-11.5188
All	-11.5189
に対抗する	-11.5189
人質	-11.5189
決着	-11.519
ダイア	-11.5191
川流域	-11.5192
んです	-11.5193
家畜	-11.5194
東山	-11.5195
まき	-11.5195
踏切	-11.5198
に押し	-11.52
管内	-11.5202
ぱ	-11.5202
日放送分	-11.5203
俸	-11.5204
花火	-11.5204
パレード	-11.5204
座標	-11.5204
早川	-11.5205
検事	-11.5206
タイミング	-11.5208
ステン	-11.5208
に関連する	-11.521
をかける	-11.521
皿	-11.5211
無所属	-11.5211
辞典	-11.5213
バージニア	-11.5213
奪還	-11.5215
EMI	-11.5216
讃	-11.5217
解明	-11.5217
−	-11.5218
公開され	-11.5218
に置かれた	-11.5219
足利義	-11.522
名声	-11.522
た場合	-11.5222
を残し	-11.5222
が建設された	-11.5224
かかって	-11.5224
どり	-11.5224
ama	-11.5225
位を獲得	-11.5226
駅名	-11.5226
WWE	-11.5226
cl	-11.5227
東京市	-11.5227
江戸幕府	-11.5227
ck	-11.5228
翌年には	-11.5228
溶液	-11.5229
生きる	-11.523
日活	-11.523
影響を受け	-11.523
博覧会	-11.5231
みなみ	-11.5232
▁World	-11.5232
駅周辺	-11.5234
は困難	-11.5235
を強め	-11.5235
デジ	-11.5235
得られた	-11.5237
当番組	-11.5237
の大半は	-11.5239
弁護	-11.5239
uk	-11.5239
▁1940	-11.524
▁Love	-11.5241
を活かし	-11.5241
豪華	-11.5241
アレン	-11.5242
のタイトルで	-11.5243
稽古	-11.5244
デリー	-11.5244
ムーア	-11.5245
den	-11.5245
vs	-11.5246
キリスト教徒	-11.5247
テリー	-11.5248
本州	-11.5249
視察	-11.5251
へ進学	-11.5253
明日	-11.5253
に向かい	-11.5253
滞	-11.5254
っぷ	-11.5254
好調	-11.5255
マーシャル	-11.5257
フェー	-11.526
さつ	-11.5264
考察	-11.5265
寄生	-11.5265
を強く	-11.5265
獅子	-11.5265
左派	-11.5266
地上波	-11.5266
棺	-11.5268
全集	-11.5269
当選した	-11.527
を連ね	-11.5271
我が	-11.5275
クハ	-11.5276
魚類	-11.5276
墓所	-11.5277
胴	-11.5277
コンピューター	-11.5278
の終わり	-11.5279
腫瘍	-11.528
せられた	-11.528
伊予	-11.5281
シール	-11.5282
活動を開始	-11.5282
鉢	-11.5282
とのこと	-11.5282
を紹介する	-11.5284
が採用された	-11.5285
島式ホーム	-11.5285
意義	-11.5286
運ばれ	-11.5288
way	-11.5288
ビクター	-11.5289
安藤	-11.5289
歳の時	-11.529
札幌市	-11.5292
仙台市	-11.5292
年代まで	-11.5292
out	-11.5295
!!』	-11.5297
カテゴリー	-11.5297
武力	-11.5299
紀伊	-11.53
ドナルド	-11.5301
短期	-11.5301
ターズ	-11.5303
させようと	-11.5304
を提供している	-11.5305
アレクサンダー	-11.5306
松浦	-11.5307
に移し	-11.5307
BBC	-11.5314
が発見され	-11.5315
甚	-11.5317
王室	-11.5318
領有	-11.5318
代官	-11.5319
が続き	-11.532
腺	-11.532
租	-11.5322
学部教授	-11.5322
世論	-11.5325
ACK	-11.5328
が必要となる	-11.5329
暴動	-11.5331
の寺院	-11.5332
に従う	-11.5332
適合	-11.5333
ぼく	-11.5335
1-2	-11.5335
は常に	-11.5335
代当主	-11.5336
Si	-11.5337
を決定する	-11.5337
乗り換え	-11.5338
フレデリック	-11.5338
この問題	-11.534
大友	-11.534
ino	-11.5342
を装備し	-11.5343
フランス人	-11.5343
郡にあった村	-11.5345
レバー	-11.5345
ベロ	-11.5347
兵庫	-11.5348
陣地	-11.5348
してくる	-11.535
バタ	-11.535
商船	-11.5351
ことなく	-11.5351
ミネソタ	-11.5352
仲介	-11.5352
演奏会	-11.5354
友会	-11.5357
小沢	-11.5358
アルバ	-11.5359
樋	-11.5359
プラスチック	-11.5359
国会議員	-11.536
偉大な	-11.5361
イラストレーター	-11.5361
那覇	-11.5363
胞子	-11.5363
したことにより	-11.5363
績	-11.5364
出身の元	-11.5364
を組み合わせた	-11.5365
を指揮し	-11.5367
畔	-11.5368
ニーズ	-11.5369
去る	-11.537
恐	-11.537
昼間	-11.537
曰く	-11.5372
女の子	-11.5372
ソリ	-11.5373
天国	-11.5374
出向	-11.5374
辿	-11.5375
賠償	-11.5376
ett	-11.5377
始まって	-11.5377
ビオ	-11.5379
教官	-11.538
内部に	-11.5381
南北戦争	-11.5381
1.2	-11.5382
として初めて	-11.5383
をつけて	-11.5384
が整備され	-11.5385
販売している	-11.5385
みん	-11.5387
を批判し	-11.5388
メト	-11.5388
転向	-11.5389
現金	-11.5389
右手	-11.5391
抵	-11.5391
を食べ	-11.5392
名乗った	-11.5392
キッド	-11.5393
白石	-11.5397
予定であったが	-11.5401
に従事した	-11.5401
調教師	-11.5403
造営	-11.5404
位だった	-11.5404
生没年不詳	-11.5404
再発	-11.5405
対象となる	-11.5406
アルファベット	-11.5406
洗礼	-11.5406
BB	-11.5407
巳	-11.5408
尖	-11.5408
蝶	-11.541
アンドリュー	-11.5416
タリー	-11.5416
を失って	-11.5416
を命じた	-11.5416
mit	-11.5416
生前	-11.5418
数千	-11.5419
IX	-11.5421
旋回	-11.5422
越し	-11.5423
の一部として	-11.5424
集まって	-11.5426
たけし	-11.5427
置換	-11.5427
ROM	-11.5428
ブレン	-11.5429
ith	-11.5429
日本の俳優	-11.543
を巻き	-11.5432
リフト	-11.5432
が実施された	-11.5434
語った	-11.5435
Java	-11.5437
堰	-11.544
に昇格した	-11.5442
合金	-11.5443
任せ	-11.5444
オーディオ	-11.5444
主将	-11.5445
寛文	-11.5446
ビートルズ	-11.5447
PH	-11.5448
顧	-11.5449
ENT	-11.5449
暑	-11.545
の法則	-11.5451
北端	-11.5456
ブロードウェイ	-11.5456
ポケット	-11.5457
ーニャ	-11.5457
戦目	-11.5458
を支持する	-11.546
追撃	-11.546
記念碑	-11.546
高速バス	-11.5465
を必要とする	-11.5466
生地	-11.5467
双子	-11.5468
を加える	-11.5469
を移し	-11.547
スラヴ	-11.5472
サール	-11.5472
漆	-11.5474
近接	-11.5474
麻雀	-11.5474
下ろし	-11.5475
※	-11.5476
東亜	-11.5477
の三男	-11.5478
女子大学	-11.5478
町田	-11.548
アドルフ	-11.5481
曲目	-11.5481
サンディエゴ	-11.5483
ジェイムズ	-11.5484
人目の	-11.5488
つけられた	-11.5488
}	-11.5489
ることなく	-11.549
デヴィッド	-11.5493
元気	-11.5494
婚姻	-11.5495
透	-11.5498
ラッセル	-11.5498
ッテン	-11.5502
あか	-11.5502
が追加された	-11.5503
褒	-11.5504
割れ	-11.5505
に応じた	-11.5506
名人	-11.5506
4,000	-11.5508
聖職者	-11.5509
day	-11.5511
JRA	-11.5513
レーター	-11.5516
輸送船	-11.5516
oss	-11.5516
天才	-11.5518
を担当している	-11.5518
役所	-11.5519
てくれた	-11.5519
ケープ	-11.5519
決まり	-11.5523
放送していた	-11.5523
去り	-11.5525
アルファ	-11.5527
ヘッ	-11.5527
観光地	-11.5528
飲食店	-11.553
迎撃	-11.5531
年度に	-11.5531
断絶	-11.5532
特権	-11.5534
GK	-11.5534
地盤	-11.5535
世界中の	-11.5535
50%	-11.5535
教育機関	-11.5535
内田	-11.5536
出来なかった	-11.5536
問われ	-11.5536
LED	-11.5539
頻	-11.554
判定負け	-11.5541
取り扱い	-11.5541
定義される	-11.5541
▁LIVE	-11.5542
高額	-11.5542
に隣接する	-11.5543
シチリア	-11.5543
瞬	-11.5545
放送時間は	-11.5545
半数	-11.5546
監査	-11.5548
に出て	-11.5551
光寺	-11.5553
アルバイト	-11.5555
幌	-11.5555
多目的	-11.5557
に進む	-11.5559
幼少期	-11.5559
那須	-11.5562
に配属され	-11.5564
放送時間	-11.5565
見事	-11.5566
フォーミュラ	-11.5566
危惧	-11.5568
ダウ	-11.5569
実写	-11.5572
写真家	-11.5574
後援	-11.5575
指標	-11.5576
を採用する	-11.5578
wa	-11.5578
▁Ex	-11.558
に留まった	-11.5581
基部	-11.5581
イグ	-11.5586
硬貨	-11.5587
ble	-11.5587
ぎり	-11.5588
蒙	-11.5588
ってしまった	-11.5589
▁Man	-11.5589
一宮	-11.5593
叫	-11.5594
混ぜ	-11.5594
同誌	-11.5595
対岸	-11.5596
神道	-11.5598
党派	-11.5599
バッテリー	-11.56
峯	-11.56
先祖	-11.5602
フラッシュ	-11.5603
富田	-11.5604
が好き	-11.5604
は少なく	-11.5606
ペドロ	-11.5607
塵	-11.5609
に似ている	-11.561
めん	-11.561
稼	-11.561
幣	-11.5615
賞賛	-11.5616
確認できる	-11.5616
プラハ	-11.5618
と言われた	-11.5619
面白	-11.5624
免除	-11.5625
廠	-11.5627
に来た	-11.5627
カルト	-11.563
電撃	-11.563
大地	-11.5633
試合に登板し	-11.5633
ホモ	-11.5635
樹木	-11.5636
位置付け	-11.5637
ウッ	-11.5638
今井	-11.5638
これ以降	-11.5638
経済学者	-11.564
蒼	-11.564
正しく	-11.5642
累	-11.5644
井戸	-11.5645
レッジ	-11.5646
であったことから	-11.5647
UD	-11.5648
を強いられ	-11.5649
保有する	-11.5649
ディーン	-11.5652
借金	-11.5652
圓	-11.5653
ッセン	-11.5653
旧姓	-11.5653
僧侶	-11.5658
鐵	-11.5662
犯行	-11.5662
を行なった	-11.5662
連邦政府	-11.5662
監修	-11.5662
親族	-11.5663
麻薬	-11.5663
優勝者	-11.5664
出入り	-11.5665
に分布する	-11.567
に属していた	-11.5671
として活躍した	-11.5673
ウィング	-11.5674
等級	-11.5674
抑	-11.5675
尋ね	-11.5676
没収	-11.5676
を支援する	-11.5678
を対象とした	-11.5678
る形で	-11.568
せよ	-11.568
戸田	-11.5681
中型	-11.5682
を選ぶ	-11.5683
公布	-11.5685
に出た	-11.5685
たところ	-11.5685
挿絵	-11.5687
属性	-11.5687
加えられた	-11.5689
センス	-11.5691
tory	-11.5692
賭け	-11.5693
ds	-11.5694
は極めて	-11.5695
内藤	-11.5696
クモ	-11.5698
変え	-11.57
を建設する	-11.5701
運送	-11.5701
BD	-11.5703
遂行	-11.5704
欧州連合	-11.5705
Ro	-11.5706
を購入し	-11.5707
旋	-11.5709
まとめて	-11.571
泣	-11.5711
国体	-11.5712
熙	-11.5713
寅	-11.5713
盛んに	-11.5713
シンガー	-11.5713
代理店	-11.5714
かせた	-11.5714
を加えて	-11.5715
に配置され	-11.5718
この時代	-11.5718
条第	-11.5719
につながる	-11.5719
lin	-11.5719
’	-11.572
ホウ	-11.572
野外	-11.5723
捕らえ	-11.5723
されるまで	-11.5724
弘前	-11.5725
威力	-11.5726
高島	-11.5726
定められている	-11.5727
を捨て	-11.5729
グン	-11.573
エアロ	-11.5731
ないよう	-11.5735
遡	-11.5736
王女	-11.5736
▁System	-11.5737
分泌	-11.5737
ッピング	-11.5737
除外	-11.5738
新潟市	-11.5741
を訪問し	-11.5742
控訴	-11.5743
キャッシュ	-11.5744
拒	-11.5747
漫才	-11.5747
爾	-11.5747
ult	-11.5748
行える	-11.5748
を集めて	-11.5749
八重	-11.575
出家	-11.5751
ライブラリ	-11.5751
西鉄	-11.5752
RN	-11.5752
嘉永	-11.5756
を開き	-11.5756
クリーク	-11.5757
ホークス	-11.5758
一次	-11.5759
を通過する	-11.5759
ユーザ	-11.576
と評している	-11.5762
上限	-11.5763
島田	-11.5763
シム	-11.5763
水面	-11.5764
組み立て	-11.5764
一面	-11.5765
自分で	-11.5765
考える	-11.5766
発覚	-11.5766
敗れ	-11.5766
セルフ	-11.577
MAX	-11.577
潟	-11.5771
Inter	-11.5773
AZ	-11.5773
濱	-11.5774
実用化	-11.5775
放置	-11.5776
噴	-11.5777
ステレオ	-11.5778
書物	-11.5779
採取	-11.578
負けを喫し	-11.578
けど	-11.5781
に準じ	-11.5782
中尉	-11.5783
音楽祭	-11.5783
で開催される	-11.5783
自由主義	-11.5785
紹介された	-11.5786
複素	-11.5787
に所属している	-11.5789
ゴジラ	-11.5789
ヘッドコーチ	-11.5791
掴	-11.5791
赤坂	-11.5793
ブレー	-11.5795
メダリスト	-11.5796
が登場した	-11.5798
選出される	-11.5798
亘	-11.5798
送った	-11.5799
ペンシルベニア州	-11.5799
スクエア	-11.5799
フィギュアスケート選手	-11.58
ひょう	-11.58
改定	-11.58
重点	-11.58
液晶	-11.5802
西端	-11.5803
プリー	-11.5803
少なかった	-11.5803
欠け	-11.5804
ロシア帝国	-11.5804
1848	-11.5806
ロビン	-11.5806
を進めた	-11.5806
を上げる	-11.5806
機銃	-11.5807
学区は以下の通りとなる	-11.5808
条項	-11.581
が図られ	-11.5811
í	-11.5811
マサチューセッツ州	-11.5811
慢性	-11.5812
ショッピング	-11.5815
[[	-11.5816
を取り入れ	-11.5818
新羅	-11.5818
必要があった	-11.5818
使節	-11.5819
]]	-11.5821
市生まれ	-11.5822
イオ	-11.5822
試合に出場した	-11.5823
uc	-11.5823
大砲	-11.5823
広範囲	-11.5825
TRA	-11.5825
NASA	-11.5825
期限付き移籍	-11.5827
多くの場合	-11.5828
借り	-11.5829
ゴット	-11.5829
高齢者	-11.583
改組	-11.583
▁Music	-11.583
巡回	-11.5833
が完成した	-11.5836
を支持し	-11.5838
理由から	-11.584
頑	-11.5841
課税	-11.5842
牌	-11.5842
トーン	-11.5843
に仕えた	-11.5844
正室	-11.5845
マナ	-11.5845
ぞく	-11.5846
スケジュール	-11.5848
刻まれ	-11.5853
防空	-11.5856
最高速度	-11.5857
休養	-11.5858
インディーズ	-11.586
乗車人員	-11.5862
は以下のとおり	-11.5862
志向	-11.5863
を設置する	-11.5864
フォーラム	-11.5866
月上旬	-11.5866
ラング	-11.5868
ics	-11.5869
ざん	-11.5871
スタイン	-11.5873
ログ	-11.5875
年代半ば	-11.5875
代将軍	-11.5875
欧	-11.5875
斯	-11.5875
誘い	-11.5876
が成立し	-11.5876
総数	-11.5878
骨格	-11.5879
ドラー	-11.5882
読書	-11.5882
野球場	-11.5883
奇跡	-11.5883
アルミニウム	-11.5885
楽天	-11.5885
を記念して	-11.5886
SUPER	-11.5886
三田	-11.5887
抽出	-11.5889
コパ	-11.5889
が誕生した	-11.5889
通知	-11.589
スノー	-11.5891
ことはなく	-11.5893
極東	-11.5894
オルガン	-11.5895
ビルボード	-11.5896
オキシ	-11.5896
ヤマト	-11.5896
金剛	-11.5897
切手	-11.5897
ばれ	-11.5898
があれば	-11.59
を伸ばし	-11.59
ファミコン	-11.5901
一種の	-11.5902
ヨーゼフ	-11.5903
終了後に	-11.5904
ンゲン	-11.5905
ささ	-11.5907
四日市	-11.5908
ヤンキース	-11.5909
本多	-11.5912
宗家	-11.5913
を主張し	-11.5914
爆破	-11.5914
に使用される	-11.5915
戻し	-11.5916
苦戦	-11.5916
ッセル	-11.5921
入会	-11.5922
木製	-11.5922
つつあった	-11.5923
佐伯	-11.5923
テュ	-11.5923
伝統的に	-11.5925
はじめて	-11.5925
内陸	-11.5927
ホーン	-11.5927
冷戦	-11.5928
歩兵第	-11.5928
容疑で	-11.5929
騒	-11.593
で発生した	-11.5931
に関与し	-11.5932
向かって	-11.5932
ざわ	-11.5932
内閣総理大臣	-11.5933
を買収し	-11.5934
コーラ	-11.5934
玄関	-11.5936
orn	-11.5936
変わらない	-11.5937
舞踊	-11.5938
表題曲	-11.5938
産駒	-11.5938
AGE	-11.5939
本大会	-11.5939
▁Da	-11.594
アーキテクチャ	-11.594
年夏に	-11.594
隼	-11.5942
尊敬	-11.5942
逃走	-11.5943
北九州	-11.5944
大蔵	-11.5944
クイーンズ	-11.5944
大森	-11.5944
家庭用	-11.5945
東端	-11.5946
水田	-11.5946
伊賀	-11.5947
名門	-11.5947
侯爵	-11.5949
に分けられる	-11.595
し始めた	-11.595
累計	-11.595
趣旨	-11.5952
宗教的	-11.5952
グラフィ	-11.5952
聖母	-11.5952
医科大学	-11.5953
za	-11.5954
特技は	-11.5957
連装	-11.5959
内装	-11.5962
を変える	-11.5962
ハワード	-11.5963
池袋	-11.5964
河野	-11.5964
出羽	-11.5964
ジョニー	-11.5967
決意	-11.5967
を表し	-11.5967
パルス	-11.5967
処置	-11.5968
ユダヤ	-11.5968
鳥居	-11.5971
信徒	-11.5972
誘拐	-11.5972
あわせ	-11.5973
小売	-11.5974
萬	-11.5974
出血	-11.5974
鴻	-11.5978
窯	-11.5978
桜井	-11.5978
することができた	-11.598
大都市	-11.5984
ö	-11.5985
五十	-11.5986
真空	-11.5986
多岐	-11.5986
解説者	-11.599
等しい	-11.5991
貌	-11.5991
湾岸	-11.5994
のぼる	-11.5996
憎	-11.5996
を担当し	-11.5997
県都	-11.6001
年に発表した	-11.6001
匠	-11.6002
国際大会	-11.6004
朋	-11.6004
いちらん	-11.6004
瀬川	-11.6006
ホーク	-11.6007
センチ	-11.6007
大社	-11.6008
Bo	-11.6008
囚	-11.6009
ついて	-11.601
撃ち	-11.6012
を得ている	-11.6015
ミネ	-11.6016
特色	-11.6016
娯楽	-11.6017
に属している	-11.6017
にとどまった	-11.6017
亜科	-11.6018
できるようになった	-11.6019
に始まる	-11.6019
年代にかけて	-11.602
外来	-11.602
を率い	-11.602
成熟	-11.6022
炭鉱	-11.6024
を固め	-11.6025
友達	-11.6026
愚	-11.6026
の一角	-11.6028
築かれ	-11.603
MAN	-11.603
反面	-11.6031
特番	-11.6038
有人	-11.6038
ロシア連邦	-11.6039
築城	-11.6041
ress	-11.6041
の有無	-11.6041
宮本	-11.6042
lic	-11.6043
行政区	-11.6044
背負	-11.6045
を必要とし	-11.6045
1,2	-11.6046
同性愛	-11.6047
に送り	-11.6047
体内	-11.6047
International	-11.6049
に過ぎない	-11.6049
tur	-11.6051
巴	-11.6053
ティエ	-11.6054
してしまい	-11.6055
DR	-11.6056
下野	-11.6057
に所属した	-11.6059
住居表示	-11.6059
本願寺	-11.6062
Wi	-11.6063
武家	-11.6064
祭神	-11.6064
進撃	-11.607
フアン	-11.607
20%	-11.607
いったん	-11.6072
樹脂	-11.6074
ふる	-11.6077
rin	-11.6078
喜び	-11.608
を設置した	-11.6081
活動家	-11.6081
整備された	-11.6081
日本初の	-11.6081
取って	-11.6084
Di	-11.6086
ぐる	-11.6087
示された	-11.6087
を備える	-11.6088
引き受け	-11.609
公開されている	-11.609
他国	-11.609
アムステルダム	-11.6094
暮	-11.6095
神奈川県横浜市	-11.6095
教諭	-11.6095
を殺害し	-11.6096
起こした	-11.6097
位を記録	-11.6098
芸能界	-11.6099
ケリー	-11.6099
を完成させ	-11.61
メイド	-11.6101
を紹介し	-11.6102
歩く	-11.6104
インストール	-11.6105
魯	-11.6106
明治維新	-11.6106
と主張し	-11.6106
があったため	-11.6107
予言	-11.6108
用いた	-11.6109
ライド	-11.6109
ストレス	-11.611
への参加	-11.6111
寸	-11.6111
枚目のアルバム	-11.6112
輿	-11.6113
悦	-11.6115
を拠点に	-11.6115
を展開する	-11.6116
造成	-11.6116
片側	-11.6116
負傷した	-11.6116
ボスニア	-11.6121
ルドルフ	-11.6121
が設けられた	-11.6122
国営	-11.6123
無料で	-11.6123
をめぐって	-11.6124
姿を消し	-11.6125
ワールドシリーズ	-11.6128
杵	-11.613
タバコ	-11.613
鑑定	-11.6132
倉敷	-11.6134
同局	-11.6137
破損	-11.6137
エイト	-11.6137
このことは	-11.6138
日本の実業家	-11.6138
高等学校を経て	-11.6139
こい	-11.6139
ウイング	-11.6141
との間の	-11.6141
路面電車	-11.6141
より発売された	-11.6142
遺族	-11.6145
を始めとする	-11.6145
とも言われる	-11.6147
予定だった	-11.6149
喰	-11.6149
などといった	-11.6151
愛国	-11.6151
日本シリーズ	-11.6151
最近では	-11.6152
収められ	-11.6152
閑	-11.6153
ä	-11.6155
こなし	-11.6156
隙	-11.6156
ことを発表した	-11.6157
ソ連軍	-11.616
ヒュ	-11.6162
移設	-11.6162
プレミア	-11.6162
梅田	-11.6164
サスペンション	-11.6164
カウンター	-11.6164
金子	-11.6166
アルバニア	-11.6167
戻す	-11.6168
TER	-11.6169
慮	-11.6169
難易度	-11.617
宝塚歌劇団	-11.6172
放映された	-11.6173
を支える	-11.6175
眞	-11.6175
撤回	-11.6177
モントリオール	-11.6177
行われており	-11.6178
センサー	-11.6179
郵政	-11.618
爵	-11.6181
シアトル	-11.6181
クロン	-11.6185
ことを示す	-11.6185
武道	-11.6185
宣教師	-11.6185
クォー	-11.6186
松尾	-11.6186
ano	-11.6186
を目的とする	-11.6188
メット	-11.6189
樺太	-11.619
が知られている	-11.619
年に設立された	-11.6191
稲荷	-11.6194
中原	-11.6194
UL	-11.6194
われて	-11.6195
1,0	-11.6195
1830	-11.6195
魔術	-11.6195
アーケード	-11.6196
決定された	-11.6197
圧倒的	-11.6198
と戦う	-11.6198
ミヤ	-11.6202
勝利を収め	-11.6202
チョン	-11.6204
ドラマー	-11.6204
を動か	-11.6206
煙突	-11.6207
テレビシリーズ	-11.6209
トレイン	-11.621
先発出場	-11.621
決まる	-11.6212
レック	-11.6214
深さ	-11.6215
虐待	-11.6216
駅伝	-11.6216
宝暦	-11.6217
専務	-11.6217
ブラウザ	-11.6218
固体	-11.6219
痛み	-11.622
諸侯	-11.6221
主砲	-11.6221
アイスランド	-11.6222
あらかじめ	-11.6223
を入れる	-11.6225
フェス	-11.6225
触媒	-11.6226
落とす	-11.6226
喜劇	-11.6226
選帝侯	-11.6227
に隣接し	-11.6231
に分類され	-11.6232
勧	-11.6233
直営	-11.6233
ことに成功した	-11.6234
四季	-11.6234
ラインナップ	-11.6235
に反対する	-11.6239
狙い	-11.6239
入る	-11.624
幸せ	-11.6243
Vo	-11.6243
渦	-11.6244
さいたま市	-11.6245
その頃	-11.6246
リーン	-11.6247
加盟国	-11.6248
本郷	-11.6249
ニッポン放送	-11.6252
射程	-11.6252
主翼	-11.6253
マイアミ	-11.6253
撫	-11.6256
発車	-11.6256
の成績を残した	-11.6256
元和	-11.6256
にならない	-11.6257
gin	-11.6257
バーデン	-11.6257
吸収合併	-11.626
京都大学	-11.6261
松原	-11.6262
を継ぐ	-11.6262
ブリュ	-11.6263
産出	-11.6263
に拠れば	-11.6264
兼ね	-11.6264
イット	-11.6265
チオ	-11.6266
単体	-11.6266
シオン	-11.6267
と同じように	-11.6267
種族	-11.6268
研究開発	-11.6268
穀物	-11.6269
異なった	-11.6269
エレクトリック	-11.6269
シアン	-11.6269
向かう	-11.627
講習	-11.6272
偉	-11.6273
歓迎	-11.6273
好評	-11.6274
を書く	-11.6275
型式	-11.6279
を展開し	-11.6279
と呼んで	-11.6279
有力な	-11.628
IGHT	-11.6281
を投じ	-11.6282
追悼	-11.6283
古河	-11.6284
セントルイス	-11.6284
アンダーソン	-11.6285
同大学	-11.6286
入国	-11.6286
真理	-11.6287
チーズ	-11.6289
自宅で	-11.6289
デア	-11.629
ナギ	-11.629
待機	-11.6293
歩き	-11.6294
カルロ	-11.6295
によるものである	-11.6295
牡	-11.6296
ホルン	-11.6296
元来	-11.6299
平原	-11.6302
を記録する	-11.6304
ライト級	-11.6304
州立大学	-11.6306
社内	-11.6307
ジミー	-11.6308
北九州市	-11.6309
ロジー	-11.6309
読売	-11.631
換装	-11.6312
棄	-11.6314
ニンテンドー	-11.6315
研究センター	-11.6317
クロム	-11.6317
ゲリラ	-11.6318
暴走	-11.6318
あきら	-11.6318
ローマ帝国	-11.6319
摂津	-11.6319
曹操	-11.6319
好成績	-11.6319
山梨	-11.6321
小田急	-11.6321
4.5	-11.6322
駐在	-11.6323
仁親王	-11.6323
栃木	-11.6324
党員	-11.6325
原発	-11.6325
祝日	-11.6327
ヴル	-11.6327
NPO	-11.6327
を背景に	-11.6327
荻	-11.6329
不十分	-11.6329
を導入した	-11.6331
選択肢	-11.6332
運行している	-11.6332
スティーブン	-11.6335
フロア	-11.6337
レンタル移籍	-11.6339
造形	-11.634
骸	-11.634
クルーズ	-11.6342
シーズンから	-11.6343
摂政	-11.6343
排気	-11.6344
を超えて	-11.6345
者もいる	-11.6346
箕	-11.6346
指向	-11.6348
転写	-11.635
宰相	-11.635
大関	-11.6352
加茂	-11.6353
星野	-11.6354
俳句	-11.6356
マニラ	-11.6357
汎用	-11.6357
ヴァルト	-11.6358
で使用された	-11.6359
出航	-11.6359
ことについて	-11.6359
One	-11.6362
することなく	-11.6363
運ぶ	-11.6364
調査では	-11.6364
を創設し	-11.6365
帖	-11.6366
移籍後	-11.6366
大阪府大阪市	-11.6367
モト	-11.6368
グラント	-11.6374
日午後	-11.6374
すり	-11.6375
左岸	-11.6377
じんじゃ	-11.6378
殿堂入り	-11.6378
二代目	-11.638
テレビジョン	-11.638
多様体	-11.6381
и	-11.6383
重臣	-11.6385
の末に	-11.6386
ting	-11.6387
バンタム級	-11.6389
包括	-11.6389
TM	-11.6389
感染症	-11.6391
袁	-11.6391
航空隊	-11.6391
を余儀なくされ	-11.6392
を制し	-11.6392
ヵ月	-11.6394
退け	-11.6394
エチオピア	-11.6395
高性能	-11.6395
ef	-11.6396
屋外	-11.6396
仕上げ	-11.6397
半導体	-11.6399
プライベート	-11.6399
占拠	-11.6399
敢	-11.64
収束	-11.6401
‐	-11.6403
MR	-11.6403
駄	-11.6404
犬種	-11.6405
に代表される	-11.6405
フランクリン	-11.6406
にかかる	-11.6407
当事者	-11.6409
風俗	-11.6409
急性	-11.6411
フランシスコ	-11.6411
ベネズエラ	-11.6412
0.2	-11.6413
ll	-11.6413
傘	-11.6414
取り扱う	-11.6416
亜種	-11.6417
に囲まれ	-11.6418
生体	-11.6418
肯	-11.6418
媒	-11.6419
バンダイ	-11.642
ひがし	-11.642
ニュータウン	-11.642
聞こえ	-11.6423
土俵	-11.6425
成長した	-11.6426
で優勝した	-11.6426
得票	-11.643
多項式	-11.643
封鎖	-11.6431
レックス	-11.6432
嘘	-11.6434
もたらされ	-11.6434
に進み	-11.6438
癖	-11.6438
記録されている	-11.6441
することができ	-11.6442
割り当てられ	-11.6442
pre	-11.6444
マイクロソフト	-11.6445
混雑	-11.6445
みたい	-11.6446
を突破し	-11.6446
パナマ	-11.6447
融資	-11.6452
和名	-11.6452
改宗	-11.6453
誘致	-11.6454
1.6	-11.6454
系譜	-11.6455
つぶ	-11.6456
ere	-11.6459
を引く	-11.6459
遅延	-11.6459
以南	-11.6459
新井	-11.646
に合格	-11.6461
にあたった	-11.6462
にも参加	-11.6462
リーフ	-11.6463
演出家	-11.6463
に見舞われ	-11.6463
秋山	-11.6468
百合	-11.6468
サッカー部	-11.6471
考えた	-11.6472
han	-11.6472
と推定されている	-11.6472
マーン	-11.6472
高岡	-11.6473
喧嘩	-11.6473
たとえ	-11.6474
rit	-11.6474
拡散	-11.6475
を喫した	-11.6476
宝石	-11.6476
役人	-11.6477
オハイオ州	-11.6477
年公開の	-11.6479
灰色	-11.6479
カンボジア	-11.6481
長期間	-11.6481
ティウス	-11.6481
lor	-11.6482
本番組	-11.6484
を支援し	-11.6484
カルチャー	-11.6486
ティーン	-11.6486
rad	-11.6487
公使	-11.6487
幻想	-11.6488
を卒業した	-11.6488
と共同で	-11.6488
とは言え	-11.649
ノック	-11.649
に就く	-11.6492
oto	-11.6492
器具	-11.6493
クライアント	-11.6495
例もある	-11.6496
発現	-11.6497
低減	-11.6498
組成	-11.6498
疫	-11.6498
粟	-11.6499
揃え	-11.6501
集約	-11.6502
活躍を見せ	-11.6502
に於いて	-11.6503
描く	-11.6503
que	-11.6507
スタメン	-11.6509
ATION	-11.6511
NATO	-11.6511
ジュリア	-11.6512
順番	-11.6516
原爆	-11.6516
猶	-11.6516
震災	-11.6522
鉄道路線	-11.6524
会派	-11.6524
につれ	-11.6524
ものとなっている	-11.6525
委員会委員	-11.6526
ベット	-11.6527
転落	-11.6529
王家	-11.6529
Jr	-11.653
大相撲	-11.6532
日本の女性	-11.6533
的存在	-11.6534
王座決定戦	-11.6535
と呼ばれるようになった	-11.6536
捕ま	-11.6536
グローブ	-11.654
うん	-11.6541
カタログ	-11.6542
最速	-11.6542
スティーヴン	-11.6542
つくば	-11.6544
岩手	-11.6544
red	-11.6544
余裕	-11.6545
と称して	-11.6547
トルク	-11.6547
誰か	-11.6548
抽象	-11.6548
三角形	-11.6549
Pro	-11.655
ことはできなかった	-11.6551
松下	-11.6552
旋律	-11.6552
転送	-11.6552
を遂げ	-11.6553
ゴロ	-11.6553
人気を博し	-11.6554
に分けて	-11.6554
1859	-11.6555
展覧会	-11.6556
に留まり	-11.6556
見つかっ	-11.6557
けば	-11.656
アーツ	-11.656
そく	-11.6561
揺	-11.6562
判定勝ち	-11.6565
日本共産党	-11.6566
パトリック	-11.6566
スロバキア	-11.6567
添加	-11.6568
ちょ	-11.6573
に設置されている	-11.6573
ざき	-11.6574
優勢	-11.6574
跡地に	-11.6575
方面から	-11.6576
傾向がある	-11.6577
つけて	-11.6579
作られている	-11.6581
文久	-11.6583
ビック	-11.6584
促	-11.6585
もらった	-11.6587
日本語版	-11.6589
暴行	-11.6593
激化	-11.6593
逢	-11.6595
ヘビー級王座	-11.6597
白山	-11.6597
沸	-11.6598
幹線	-11.6598
日本国外	-11.6599
ハイブリッド	-11.6599
吊り	-11.66
残した	-11.6601
精神的	-11.6601
ルネサンス	-11.6604
ケイン	-11.6605
ヶ月間	-11.6607
数回	-11.6607
JO	-11.6607
ゼネラル	-11.6607
地上駅	-11.6609
学生時代	-11.661
上にある	-11.661
みどり	-11.661
デイヴィッド	-11.6611
毎日新聞	-11.6612
を描き	-11.6613
イギリス人	-11.6613
竹内	-11.6614
御殿	-11.6614
をなす	-11.6614
推理	-11.6614
を発行し	-11.6615
"("	-11.6615
青色	-11.6615
遭	-11.6616
を行なう	-11.6617
田舎	-11.6618
ホスト	-11.6619
副社長	-11.6619
八郎	-11.662
強盗	-11.6621
のほとんどは	-11.6624
対馬	-11.6624
スロット	-11.6625
左手	-11.6626
に移転した	-11.6626
イブン	-11.6628
TU	-11.6629
に加盟し	-11.6631
ホームズ	-11.6632
と並ぶ	-11.6632
豊島	-11.6635
二等	-11.6636
舞鶴	-11.6636
月時点で	-11.6636
ウェイン	-11.6636
を拒否した	-11.6637
儲け	-11.6637
を廃止し	-11.6638
お前	-11.664
暮れ	-11.6641
を訪ね	-11.6641
鋳	-11.6642
バグ	-11.6643
漫画作品	-11.6643
幕下	-11.6644
増殖	-11.6644
有限会社	-11.6645
初年度	-11.6647
凍結	-11.6647
ユニフォーム	-11.6649
を否定し	-11.6652
オッ	-11.6653
row	-11.6655
ダンジョン	-11.6655
0°	-11.6657
商事	-11.6657
フォト	-11.6658
普通列車	-11.6661
中枢	-11.6664
ベレ	-11.6664
源流	-11.6665
塩化	-11.6665
ひこ	-11.6666
ウルス	-11.6667
』・『	-11.6669
恨	-11.6669
から始まる	-11.6671
がきっかけで	-11.6674
に住んでいた	-11.6675
疑惑	-11.6676
今日では	-11.6676
村田	-11.668
予定されていた	-11.6681
エルサレム	-11.6681
塩基	-11.6683
尚書	-11.6683
久留米	-11.6683
それ以上	-11.6685
戦果	-11.6687
ペトロ	-11.6688
圧倒的な	-11.669
鋳造	-11.669
徴兵	-11.6691
病死	-11.6693
退学	-11.6693
さなかった	-11.6694
拠点として	-11.6695
召集	-11.6695
ジーン	-11.6696
に指名され	-11.6697
戦時中	-11.6698
看	-11.6698
御用	-11.6698
ツェン	-11.67
が進んだ	-11.6701
日本の漫画家	-11.6701
謳	-11.6701
意向	-11.6701
Star	-11.6702
をもうけた	-11.6704
巡礼	-11.6704
ami	-11.6704
浜田	-11.6705
を想定し	-11.6706
~	-11.6707
小児	-11.6708
警官	-11.6709
歴史的な	-11.6709
右岸	-11.671
ければ	-11.671
破棄	-11.6711
を飾った	-11.6711
による日本の漫画作品	-11.6711
打たれ	-11.6715
鼓	-11.6716
に勝利し	-11.6717
剖	-11.6717
亡くなる	-11.6718
警報	-11.6718
脂肪	-11.6718
直流	-11.6723
民放	-11.6724
レスラー	-11.6725
研究室	-11.6725
集結	-11.6726
最年少	-11.6727
担当者	-11.6728
中国共産党	-11.6728
を開発した	-11.6731
クレア	-11.6732
到	-11.6732
乗用車	-11.6733
頸	-11.6733
構造物	-11.6734
造られた	-11.6735
eo	-11.6736
時まで	-11.6737
出身地	-11.674
バスターミナル	-11.674
餅	-11.6742
細かい	-11.6742
ミラン	-11.6743
負荷	-11.6744
も多数	-11.6746
せば	-11.6746
ゆり	-11.6747
文部省	-11.6747
場合でも	-11.6749
hr	-11.675
民兵	-11.675
ケルン	-11.675
手段として	-11.6751
局所	-11.6751
エストニア	-11.6751
を持っており	-11.6752
一度も	-11.6753
歪	-11.6754
世界初の	-11.6757
マルティ	-11.6758
LAN	-11.6758
万部	-11.6759
押さえ	-11.6759
OH	-11.676
駅構内	-11.6763
フリゲート	-11.6764
リボン	-11.6764
西区	-11.6765
部員	-11.6766
ボラ	-11.6766
記載する	-11.6767
摘	-11.6767
_4	-11.6768
瞳	-11.6768
mor	-11.6768
西欧	-11.6769
疾	-11.6771
ヘア	-11.6776
近縁	-11.6777
仮面	-11.6778
運行する	-11.678
テクノ	-11.678
解説する	-11.678
エーカー	-11.6782
スパルタ	-11.6783
app	-11.6783
嶽	-11.6784
分校	-11.6785
歳没	-11.6785
頁	-11.6786
っく	-11.6786
が担当した	-11.6787
6,000	-11.6789
火器	-11.679
に使用された	-11.6792
インテル	-11.6793
RD	-11.6794
工房	-11.6795
信託	-11.6797
互換性	-11.6797
IDE	-11.6798
ラテン文字	-11.6799
を抱いて	-11.6799
紗	-11.68
ダイエー	-11.68
育つ	-11.6801
難波	-11.6804
が置かれた	-11.6804
を結んだ	-11.6805
要員	-11.6805
副作用	-11.6805
エンジェル	-11.6806
揺れ	-11.6806
フラー	-11.6808
釈迦	-11.681
ばね	-11.6813
依然として	-11.6814
通報	-11.6815
ベネ	-11.6816
日本書紀	-11.6816
作成された	-11.6818
リンゲン	-11.6818
MHz	-11.6822
杏	-11.6822
文化放送	-11.6823
納め	-11.6823
八木	-11.6825
を破って	-11.6826
取られた	-11.6827
フリート	-11.6827
1858	-11.6827
発電機	-11.6829
レポート	-11.683
知り合い	-11.683
古巣	-11.6831
世界各国	-11.6835
を試みた	-11.6835
腹部	-11.6836
堤防	-11.6836
山麓	-11.6837
民法	-11.6838
ナイフ	-11.6839
退官	-11.684
南下	-11.6841
終了する	-11.6844
公正	-11.6844
学部卒業	-11.6847
cal	-11.6847
ハット	-11.6849
誇り	-11.6851
を模した	-11.6851
複製	-11.6852
ストローク	-11.6852
朝倉	-11.6852
本堂	-11.6854
arr	-11.6854
勝った	-11.6855
サンクトペテルブルク	-11.6855
聖人	-11.6857
たくさん	-11.6857
受け継がれ	-11.6857
ひさ	-11.6859
〇	-11.6859
奨	-11.6861
曳	-11.6861
アレックス	-11.6862
厚生労働省	-11.6865
伸びる	-11.6866
湿地	-11.6867
ことが判明した	-11.6867
に統合され	-11.6868
ニックネーム	-11.6872
ハイン	-11.6873
知られており	-11.6873
鶴見	-11.6875
イリノイ州	-11.6875
を選んだ	-11.6877
Wii	-11.6879
の始まり	-11.6879
冥	-11.688
痕跡	-11.688
パラメータ	-11.688
ラテン	-11.6881
一般化	-11.6883
メイト	-11.6885
平地	-11.6886
生態	-11.6886
MUSIC	-11.6887
ディック	-11.6888
簡単な	-11.6888
uch	-11.6888
1854	-11.6888
続行	-11.6888
本機	-11.6888
フラワー	-11.6889
フェニックス	-11.6889
真珠湾	-11.689
に接し	-11.6891
学派	-11.6894
長時間	-11.6895
を考慮し	-11.6898
香り	-11.6898
祈り	-11.6901
シェイ	-11.6902
ツェル	-11.6904
に限り	-11.6905
立ち上げ	-11.6911
と推定される	-11.6914
クジラ	-11.6916
無償	-11.6916
董	-11.6916
源氏物語	-11.6917
構え	-11.6918
武将	-11.6922
高雄	-11.6922
フェロー	-11.6922
"、"	-11.6922
漏れ	-11.6923
鈴鹿	-11.6925
染色体	-11.6927
マクロ	-11.6927
はるかに	-11.6929
大学法学部	-11.6934
ノミネート	-11.6938
灯台	-11.6938
ことだった	-11.6938
アラビア	-11.6938
アヌス	-11.6938
プティ	-11.6938
メジャーリーグ	-11.6939
意欲	-11.6939
にもなった	-11.6939
歴史上	-11.6943
八代	-11.6944
を演じる	-11.6947
遮断	-11.695
射殺	-11.6951
忙	-11.6951
どおり	-11.6952
小銃	-11.6956
ぺ	-11.6957
失脚	-11.6957
を取り戻し	-11.6957
▁Records	-11.6959
古来	-11.6962
地質	-11.6962
ネパール	-11.6963
ó	-11.6963
アダルト	-11.6965
円盤	-11.6969
ミツ	-11.6969
over	-11.6971
対潜	-11.6971
あつ	-11.6972
一橋大学	-11.6975
親会社	-11.6975
エンターテイメント	-11.698
にともない	-11.698
好意	-11.6981
の指揮下	-11.6985
としても活動	-11.6985
参謀長	-11.6986
こんな	-11.6986
積極的な	-11.6987
進路	-11.6989
矢野	-11.6989
順調に	-11.6989
広瀬	-11.699
植え	-11.6992
争う	-11.6992
デイリー	-11.6992
穀	-11.6993
ning	-11.6993
活動を続け	-11.6994
ker	-11.6995
実体	-11.6995
フィリ	-11.6996
ネック	-11.6996
試合出場	-11.6996
執政官	-11.6997
柔軟	-11.6997
破壊され	-11.6997
幼虫	-11.7
荒廃	-11.7
RAM	-11.7001
の中で最も	-11.7003
年に発売された	-11.7004
常磐	-11.7004
殉	-11.7005
サロ	-11.7005
大学経済学部	-11.7006
幼い	-11.7006
ren	-11.7007
キングス	-11.7008
に分けられ	-11.701
取り入れ	-11.7011
慕	-11.7011
皇室	-11.7012
膨大な	-11.7015
と指摘している	-11.7016
占	-11.7017
プロトコル	-11.7017
ようになっていた	-11.7021
駐留	-11.7022
休暇	-11.7022
対話	-11.7023
例がある	-11.7024
bl	-11.7025
資料館	-11.7027
を破壊し	-11.7028
当社	-11.703
宣告	-11.7031
帰った	-11.7033
出演していた	-11.7035
ゆめ	-11.7035
契機	-11.7036
わたし	-11.7038
を断念	-11.7039
園芸	-11.704
使用可能	-11.704
と名付けられた	-11.704
柿	-11.704
飛鳥	-11.7041
協同組合	-11.7041
遺物	-11.7042
分配	-11.7043
サミュエル	-11.7044
に襲われ	-11.7046
荘園	-11.7047
ull	-11.7049
取締	-11.7049
調和	-11.7049
として用いられる	-11.7051
思う	-11.7054
実質的な	-11.7054
リアルタイム	-11.7056
叩	-11.7056
十字軍	-11.7057
言語学	-11.7058
詳	-11.7058
出来ず	-11.7059
カツ	-11.7059
卓球	-11.7059
の一人である	-11.706
low	-11.7061
ジャイアンツ	-11.7061
見学	-11.7062
即位した	-11.7063
モーツァルト	-11.7063
シック	-11.7064
封印	-11.7067
自由な	-11.7068
参議院議員	-11.7068
受託	-11.7068
別府	-11.7069
青少年	-11.7071
日露戦争	-11.7071
抱え	-11.7072
設置されている	-11.7073
世界各地	-11.7073
でプレーした	-11.7074
示されている	-11.7075
タイガー	-11.7076
プログラミング	-11.7076
翁	-11.7077
吹奏楽	-11.7079
のみであった	-11.7082
oy	-11.7086
平定	-11.7088
汽船	-11.7089
曽根	-11.7089
諦め	-11.7089
最盛期	-11.709
蔵書	-11.7091
に面し	-11.7093
綬	-11.7094
発掘調査	-11.7095
仕切	-11.7096
東ドイツ	-11.7097
衰え	-11.7098
に携わる	-11.7099
誕生日	-11.7103
纏	-11.7105
院長	-11.7106
を任され	-11.7107
串	-11.7107
偶	-11.7109
っき	-11.7109
レコード会社	-11.7111
大学医学部	-11.7113
東北地方	-11.7113
ギャング	-11.7114
タイガース	-11.7116
問い	-11.7116
ハドソン	-11.7117
エヴァ	-11.7117
下院議員	-11.7118
既存	-11.7119
ハンブルク	-11.7119
ストリーム	-11.7119
家具	-11.7121
吾妻	-11.7122
アラスカ	-11.7124
改変	-11.7125
1855	-11.7126
大学を卒業	-11.7128
始発	-11.7129
芸能人	-11.713
自転車競技	-11.713
領内	-11.7131
総統	-11.7131
フェザー級	-11.7132
伏せ	-11.7133
Part	-11.7133
のインタビューで	-11.7134
丸山	-11.7136
納入	-11.7138
に抜擢され	-11.7139
在任	-11.714
サポーター	-11.7141
四つ	-11.7143
を開く	-11.7143
奥州	-11.7145
木曜日	-11.7146
モロッコ	-11.7149
大半が	-11.7149
苦労	-11.715
版画	-11.715
貰	-11.7155
生殖	-11.7157
哺乳類	-11.7157
傑	-11.7159
att	-11.716
焦点	-11.7164
ミサ	-11.7166
拍子	-11.7167
舘	-11.717
トランプ	-11.7171
に起きた	-11.7171
カラオケ	-11.7172
考えて	-11.7173
ジオン	-11.7176
を担当していた	-11.7176
hu	-11.7177
分断	-11.7182
卑	-11.7182
吹き替え	-11.7189
古墳群	-11.7189
大阪府立	-11.719
を除いた	-11.7191
乙女	-11.7191
として扱われ	-11.7191
記念館	-11.7193
発見されている	-11.7193
に属した	-11.7193
ICE	-11.7196
改名	-11.7197
理科	-11.7197
歴史的に	-11.7201
天明	-11.7202
付けられる	-11.7202
をやめ	-11.7202
を増やし	-11.7203
会会長	-11.7203
採集	-11.7203
ビルマ	-11.7205
〔	-11.7205
濁	-11.7205
総選挙で	-11.7207
預け	-11.7208
茶屋	-11.7209
を建設し	-11.7211
本書	-11.7211
淀	-11.7212
失業	-11.7213
体長	-11.7215
世紀前半	-11.7217
いかなる	-11.7218
無罪	-11.7221
クロード	-11.7222
1・2	-11.7223
で生まれる	-11.7225
を実施する	-11.7226
踊	-11.7226
イヌ	-11.7227
得点を記録	-11.7227
〕	-11.7229
ジャーナル	-11.7229
法則	-11.723
長老	-11.723
アクセント	-11.723
ミドル級	-11.7231
単発	-11.7231
不調	-11.7232
クロウ	-11.7233
ローマ教皇	-11.7235
寄稿	-11.7236
剣道	-11.7236
其	-11.7237
重要文化財	-11.7238
カビ	-11.7241
タイアップ	-11.7241
スキー場	-11.7242
ることはなかった	-11.7242
きわめて	-11.7243
ディビシオン	-11.7244
に設けられた	-11.7244
適用される	-11.7245
資材	-11.7246
van	-11.7247
ウォーカー	-11.7248
新曲	-11.7249
予備役	-11.7251
を繰り返す	-11.7252
原子炉	-11.7253
惜し	-11.7254
楚	-11.7256
ブルックリン	-11.7257
フック	-11.7259
後漢	-11.726
出すこと	-11.726
クリスタル	-11.7262
ヒメ	-11.7265
MV	-11.7266
処刑された	-11.7266
バター	-11.7267
火薬	-11.7267
人の子供	-11.7268
ビタミン	-11.727
とも言える	-11.7271
USA	-11.7272
対外	-11.7272
プロペラ	-11.7272
Game	-11.7273
南北朝時代	-11.7273
High	-11.7274
を引き継いだ	-11.7274
ハブ	-11.7274
物理的	-11.7276
なかったこと	-11.7277
モニター	-11.7277
になってしまう	-11.7278
ッティング	-11.7278
突起	-11.728
留学生	-11.7281
[...]
